unsigned char model_tflite[] = {
  0x1c, 0x00, 0x00, 0x00, 0x54, 0x46, 0x4c, 0x33, 0x00, 0x00, 0x12, 0x00,
  0x1c, 0x00, 0x04, 0x00, 0x08, 0x00, 0x0c, 0x00, 0x10, 0x00, 0x14, 0x00,
  0x00, 0x00, 0x18, 0x00, 0x12, 0x00, 0x00, 0x00, 0x03, 0x00, 0x00, 0x00,
  0x14, 0x00, 0x00, 0x00, 0x1c, 0x00, 0x00, 0x00, 0xa8, 0x00, 0x00, 0x00,
  0x1c, 0x00, 0x00, 0x00, 0x50, 0x00, 0x00, 0x00, 0x02, 0x00, 0x00, 0x00,
  0x4c, 0x03, 0x00, 0x00, 0x6c, 0x01, 0x00, 0x00, 0x01, 0x00, 0x00, 0x00,
  0xb0, 0x00, 0x00, 0x00, 0x0d, 0x00, 0x00, 0x00, 0x28, 0x15, 0x00, 0x00,
  0x24, 0x15, 0x00, 0x00, 0x04, 0x14, 0x00, 0x00, 0x68, 0x13, 0x00, 0x00,
  0xe8, 0x12, 0x00, 0x00, 0x48, 0x08, 0x00, 0x00, 0xd4, 0x04, 0x00, 0x00,
  0x90, 0x03, 0x00, 0x00, 0x08, 0x15, 0x00, 0x00, 0x04, 0x15, 0x00, 0x00,
  0x00, 0x15, 0x00, 0x00, 0xfc, 0x14, 0x00, 0x00, 0x38, 0x00, 0x00, 0x00,
  0x01, 0x00, 0x00, 0x00, 0x0c, 0x00, 0x00, 0x00, 0x08, 0x00, 0x0c, 0x00,
  0x04, 0x00, 0x08, 0x00, 0x08, 0x00, 0x00, 0x00, 0x08, 0x00, 0x00, 0x00,
  0x0c, 0x00, 0x00, 0x00, 0x13, 0x00, 0x00, 0x00, 0x6d, 0x69, 0x6e, 0x5f,
  0x72, 0x75, 0x6e, 0x74, 0x69, 0x6d, 0x65, 0x5f, 0x76, 0x65, 0x72, 0x73,
  0x69, 0x6f, 0x6e, 0x00, 0x62, 0xec, 0xff, 0xff, 0x04, 0x00, 0x00, 0x00,
  0x10, 0x00, 0x00, 0x00, 0x31, 0x2e, 0x35, 0x2e, 0x30, 0x00, 0x00, 0x00,
  0x00, 0x00, 0x00, 0x00, 0x00, 0x00, 0x00, 0x00, 0x0f, 0x00, 0x00, 0x00,
  0x4d, 0x4c, 0x49, 0x52, 0x20, 0x43, 0x6f, 0x6e, 0x76, 0x65, 0x72, 0x74,
  0x65, 0x64, 0x2e, 0x00, 0x00, 0x00, 0x0e, 0x00, 0x18, 0x00, 0x04, 0x00,
  0x08, 0x00, 0x0c, 0x00, 0x10, 0x00, 0x14, 0x00, 0x0e, 0x00, 0x00, 0x00,
  0x14, 0x00, 0x00, 0x00, 0x40, 0x00, 0x00, 0x00, 0x44, 0x00, 0x00, 0x00,
  0x48, 0x00, 0x00, 0x00, 0x58, 0x00, 0x00, 0x00, 0x0b, 0x00, 0x00, 0x00,
  0x20, 0x14, 0x00, 0x00, 0xb0, 0x13, 0x00, 0x00, 0xdc, 0x12, 0x00, 0x00,
  0x4c, 0x12, 0x00, 0x00, 0xe4, 0x11, 0x00, 0x00, 0x40, 0x07, 0x00, 0x00,
  0xcc, 0x03, 0x00, 0x00, 0x64, 0x02, 0x00, 0x00, 0x90, 0x01, 0x00, 0x00,
  0xf4, 0x00, 0x00, 0x00, 0x7c, 0x00, 0x00, 0x00, 0x01, 0x00, 0x00, 0x00,
  0x00, 0x00, 0x00, 0x00, 0x01, 0x00, 0x00, 0x00, 0x0a, 0x00, 0x00, 0x00,
  0x04, 0x00, 0x00, 0x00, 0xec, 0x01, 0x00, 0x00, 0x38, 0x01, 0x00, 0x00,
  0xa0, 0x00, 0x00, 0x00, 0x1c, 0x00, 0x00, 0x00, 0x04, 0x00, 0x00, 0x00,
  0x6d, 0x61, 0x69, 0x6e, 0x00, 0x00, 0x0e, 0x00, 0x18, 0x00, 0x08, 0x00,
  0x0c, 0x00, 0x10, 0x00, 0x07, 0x00, 0x14, 0x00, 0x0e, 0x00, 0x00, 0x00,
  0x00, 0x00, 0x00, 0x09, 0x01, 0x00, 0x00, 0x00, 0x1c, 0x00, 0x00, 0x00,
  0x10, 0x00, 0x00, 0x00, 0x04, 0x00, 0x00, 0x00, 0x3e, 0xed, 0xff, 0xff,
  0x00, 0x00, 0x80, 0x3f, 0x01, 0x00, 0x00, 0x00, 0x0a, 0x00, 0x00, 0x00,
  0x01, 0x00, 0x00, 0x00, 0x09, 0x00, 0x00, 0x00, 0x2e, 0xfe, 0xff, 0xff,
  0x00, 0x00, 0x00, 0x19, 0x01, 0x00, 0x00, 0x00, 0x98, 0xec, 0xff, 0xff,
  0x14, 0x00, 0x00, 0x00, 0x0b, 0x00, 0x00, 0x00, 0x18, 0x00, 0x00, 0x00,
  0x30, 0x00, 0x00, 0x00, 0x20, 0x00, 0x00, 0x00, 0x02, 0x00, 0x00, 0x00,
  0x01, 0x00, 0x00, 0x00, 0x06, 0x00, 0x00, 0x00, 0x08, 0x00, 0x00, 0x00,
  0x49, 0x64, 0x65, 0x6e, 0x74, 0x69, 0x74, 0x79, 0x00, 0x00, 0x00, 0x00,
  0x02, 0x00, 0x00, 0x00, 0xff, 0xff, 0xff, 0xff, 0x06, 0x00, 0x00, 0x00,
  0x84, 0xec, 0xff, 0xff, 0x7a, 0xff, 0xff, 0xff, 0x00, 0x00, 0x00, 0x08,
  0x18, 0x00, 0x00, 0x00, 0x0c, 0x00, 0x00, 0x00, 0x04, 0x00, 0x00, 0x00,
  0x9c, 0xec, 0xff, 0xff, 0x01, 0x00, 0x00, 0x00, 0x09, 0x00, 0x00, 0x00,
  0x03, 0x00, 0x00, 0x00, 0x08, 0x00, 0x00, 0x00, 0x06, 0x00, 0x00, 0x00,
  0x03, 0x00, 0x00, 0x00, 0x0c, 0xed, 0xff, 0xff, 0x14, 0x00, 0x00, 0x00,
  0x0a, 0x00, 0x00, 0x00, 0x18, 0x00, 0x00, 0x00, 0x40, 0x00, 0x00, 0x00,
  0x30, 0x00, 0x00, 0x00, 0x02, 0x00, 0x00, 0x00, 0x01, 0x00, 0x00, 0x00,
  0x06, 0x00, 0x00, 0x00, 0x19, 0x00, 0x00, 0x00, 0x73, 0x65, 0x71, 0x75,
  0x65, 0x6e, 0x74, 0x69, 0x61, 0x6c, 0x2f, 0x79, 0x5f, 0x70, 0x72, 0x65,
  0x64, 0x2f, 0x42, 0x69, 0x61, 0x73, 0x41, 0x64, 0x64, 0x00, 0x00, 0x00,
  0x02, 0x00, 0x00, 0x00, 0xff, 0xff, 0xff, 0xff, 0x06, 0x00, 0x00, 0x00,
  0x30, 0xee, 0xff, 0xff, 0x00, 0x00, 0x0e, 0x00, 0x14, 0x00, 0x00, 0x00,
  0x08, 0x00, 0x0c, 0x00, 0x07, 0x00, 0x10, 0x00, 0x0e, 0x00, 0x00, 0x00,
  0x00, 0x00, 0x00, 0x08, 0x1c, 0x00, 0x00, 0x00, 0x10, 0x00, 0x00, 0x00,
  0x04, 0x00, 0x00, 0x00, 0x4e, 0xff, 0xff, 0xff, 0x00, 0x00, 0x00, 0x01,
  0x01, 0x00, 0x00, 0x00, 0x08, 0x00, 0x00, 0x00, 0x03, 0x00, 0x00, 0x00,
  0x07, 0x00, 0x00, 0x00, 0x05, 0x00, 0x00, 0x00, 0x02, 0x00, 0x00, 0x00,
  0xa4, 0xed, 0xff, 0xff, 0x14, 0x00, 0x00, 0x00, 0x09, 0x00, 0x00, 0x00,
  0x18, 0x00, 0x00, 0x00, 0x58, 0x00, 0x00, 0x00, 0x48, 0x00, 0x00, 0x00,
  0x02, 0x00, 0x00, 0x00, 0x01, 0x00, 0x00, 0x00, 0x0a, 0x00, 0x00, 0x00,
  0x32, 0x00, 0x00, 0x00, 0x73, 0x65, 0x71, 0x75, 0x65, 0x6e, 0x74, 0x69,
  0x61, 0x6c, 0x2f, 0x64, 0x65, 0x6e, 0x73, 0x65, 0x5f, 0x31, 0x2f, 0x52,
  0x65, 0x6c, 0x75, 0x3b, 0x73, 0x65, 0x71, 0x75, 0x65, 0x6e, 0x74, 0x69,
  0x61, 0x6c, 0x2f, 0x64, 0x65, 0x6e, 0x73, 0x65, 0x5f, 0x31, 0x2f, 0x42,
  0x69, 0x61, 0x73, 0x41, 0x64, 0x64, 0x00, 0x00, 0x02, 0x00, 0x00, 0x00,
  0xff, 0xff, 0xff, 0xff, 0x0a, 0x00, 0x00, 0x00, 0xe0, 0xee, 0xff, 0xff,
  0x00, 0x00, 0x0e, 0x00, 0x16, 0x00, 0x00, 0x00, 0x08, 0x00, 0x0c, 0x00,
  0x07, 0x00, 0x10, 0x00, 0x0e, 0x00, 0x00, 0x00, 0x00, 0x00, 0x00, 0x08,
  0x24, 0x00, 0x00, 0x00, 0x18, 0x00, 0x00, 0x00, 0x0c, 0x00, 0x00, 0x00,
  0x00, 0x00, 0x06, 0x00, 0x08, 0x00, 0x07, 0x00, 0x06, 0x00, 0x00, 0x00,
  0x00, 0x00, 0x00, 0x01, 0x01, 0x00, 0x00, 0x00, 0x07, 0x00, 0x00, 0x00,
  0x03, 0x00, 0x00, 0x00, 0x00, 0x00, 0x00, 0x00, 0x04, 0x00, 0x00, 0x00,
  0x01, 0x00, 0x00, 0x00, 0x00, 0x00, 0x0a, 0x00, 0x0c, 0x00, 0x07, 0x00,
  0x00, 0x00, 0x08, 0x00, 0x0a, 0x00, 0x00, 0x00, 0x00, 0x00, 0x00, 0x09,
  0x01, 0x00, 0x00, 0x00, 0x74, 0xee, 0xff, 0xff, 0x14, 0x00, 0x00, 0x00,
  0x08, 0x00, 0x00, 0x00, 0x18, 0x00, 0x00, 0x00, 0x54, 0x00, 0x00, 0x00,
  0x44, 0x00, 0x00, 0x00, 0x02, 0x00, 0x00, 0x00, 0x01, 0x00, 0x00, 0x00,
  0x14, 0x00, 0x00, 0x00, 0x2e, 0x00, 0x00, 0x00, 0x73, 0x65, 0x71, 0x75,
  0x65, 0x6e, 0x74, 0x69, 0x61, 0x6c, 0x2f, 0x64, 0x65, 0x6e, 0x73, 0x65,
  0x2f, 0x52, 0x65, 0x6c, 0x75, 0x3b, 0x73, 0x65, 0x71, 0x75, 0x65, 0x6e,
  0x74, 0x69, 0x61, 0x6c, 0x2f, 0x64, 0x65, 0x6e, 0x73, 0x65, 0x2f, 0x42,
  0x69, 0x61, 0x73, 0x41, 0x64, 0x64, 0x00, 0x00, 0x02, 0x00, 0x00, 0x00,
  0xff, 0xff, 0xff, 0xff, 0x14, 0x00, 0x00, 0x00, 0x84, 0xee, 0xff, 0xff,
  0xa6, 0xef, 0xff, 0xff, 0x04, 0x00, 0x00, 0x00, 0xf0, 0x00, 0x00, 0x00,
  0x6c, 0x5e, 0x09, 0x3d, 0xf1, 0xaa, 0x32, 0xbf, 0xfd, 0xbf, 0xa0, 0x3e,
  0xff, 0x67, 0xd2, 0x3e, 0x60, 0x42, 0x9f, 0xbe, 0xde, 0x6f, 0xf9, 0xbd,
  0xf3, 0x49, 0x6b, 0x3e, 0xcf, 0x9f, 0x12, 0x3f, 0x63, 0x06, 0xcc, 0xbe,
  0x6f, 0x15, 0xd0, 0xbe, 0x82, 0x36, 0x00, 0x3f, 0xe5, 0xd2, 0x85, 0x3e,
  0xc9, 0x4f, 0xc4, 0x3e, 0xd3, 0xf6, 0x9a, 0xbd, 0x52, 0x33, 0xf2, 0x3e,
  0xce, 0x49, 0x17, 0xbf, 0xb7, 0x18, 0xf6, 0x3e, 0xa0, 0xe3, 0x03, 0xbf,
  0xb8, 0x9a, 0x03, 0xbf, 0x8b, 0x14, 0xa0, 0x3c, 0xae, 0xfd, 0x3c, 0xbf,
  0x47, 0x20, 0xad, 0xbe, 0x32, 0xf5, 0xc6, 0x3e, 0x55, 0xeb, 0xd3, 0xbe,
  0xf3, 0xc5, 0x62, 0xbe, 0x4c, 0x5d, 0x80, 0x3e, 0x37, 0x7b, 0x04, 0xbf,
  0xca, 0x92, 0xa7, 0xbd, 0xce, 0xb0, 0x26, 0xbf, 0x53, 0xae, 0x38, 0x3f,
  0x23, 0x1e, 0x01, 0xbf, 0x30, 0x71, 0x98, 0x3e, 0x9d, 0x91, 0xc4, 0xbe,
  0x6b, 0x3c, 0x82, 0xbd, 0x9d, 0x76, 0x72, 0x3e, 0xb5, 0x4a, 0xdc, 0x3e,
  0xf1, 0xc9, 0x3b, 0x3f, 0xeb, 0x95, 0xf6, 0xbe, 0x89, 0x4d, 0x0f, 0x3e,
  0xf9, 0x52, 0x24, 0xbf, 0x00, 0xcf, 0x2c, 0xbe, 0xd6, 0x29, 0x46, 0xbf,
  0x53, 0xbb, 0x9a, 0xbe, 0x01, 0x92, 0x1b, 0x3e, 0x7a, 0x77, 0x81, 0xbe,
  0x08, 0xd8, 0x59, 0x3d, 0xcb, 0xa9, 0x88, 0x3b, 0x6d, 0xe4, 0x58, 0x3e,
  0x9c, 0xb3, 0xfe, 0x3e, 0x88, 0x5c, 0x9a, 0x3e, 0x3e, 0x05, 0x89, 0xbe,
  0x5d, 0x08, 0x24, 0x3f, 0x17, 0x03, 0xba, 0x3e, 0xa7, 0x4d, 0x13, 0x3e,
  0xc8, 0x9e, 0x21, 0xbf, 0xf1, 0x4d, 0x29, 0xbf, 0x1e, 0xc7, 0x19, 0xbf,
  0xa1, 0x92, 0xad, 0xbe, 0xe6, 0x70, 0x53, 0x3f, 0x4d, 0xca, 0xa9, 0xbd,
  0x3e, 0xf0, 0xff, 0xff, 0x10, 0x00, 0x00, 0x00, 0x07, 0x00, 0x00, 0x00,
  0x14, 0x00, 0x00, 0x00, 0x30, 0x00, 0x00, 0x00, 0x02, 0x00, 0x00, 0x00,
  0x06, 0x00, 0x00, 0x00, 0x0a, 0x00, 0x00, 0x00, 0x18, 0x00, 0x00, 0x00,
  0x73, 0x65, 0x71, 0x75, 0x65, 0x6e, 0x74, 0x69, 0x61, 0x6c, 0x2f, 0x79,
  0x5f, 0x70, 0x72, 0x65, 0x64, 0x2f, 0x4d, 0x61, 0x74, 0x4d, 0x75, 0x6c,
  0x00, 0x00, 0x00, 0x00, 0xc4, 0xef, 0xff, 0xff, 0xe6, 0xf0, 0xff, 0xff,
  0x04, 0x00, 0x00, 0x00, 0x20, 0x03, 0x00, 0x00, 0x05, 0xc9, 0xb4, 0xbe,
  0xb9, 0x5c, 0x23, 0x3d, 0x76, 0x4c, 0xdb, 0x3e, 0x7a, 0x8c, 0xcc, 0x3d,
  0x0e, 0xc6, 0xb7, 0x3e, 0x2d, 0x4f, 0xd0, 0xbd, 0xd6, 0x50, 0x51, 0xbd,
  0xdc, 0x43, 0xde, 0x39, 0x23, 0x65, 0x82, 0xbe, 0x03, 0xb2, 0xed, 0xbe,
  0x8a, 0x38, 0x08, 0xbb, 0x9e, 0x9e, 0x6a, 0xbe, 0xc3, 0xd0, 0xb1, 0x3e,
  0x1a, 0x03, 0xee, 0x3e, 0x08, 0x6f, 0xf6, 0xbd, 0xe1, 0x4c, 0x4e, 0x3c,
  0x7f, 0x25, 0xc1, 0xbe, 0x7f, 0x8d, 0x1e, 0x3e, 0x00, 0xdc, 0x7b, 0xbe,
  0xfb, 0x05, 0xcf, 0x3d, 0x5a, 0xfb, 0x44, 0xbd, 0x38, 0xde, 0x53, 0x3e,
  0x3f, 0x27, 0x82, 0xbe, 0x7d, 0xa3, 0xcb, 0x3d, 0x39, 0xbe, 0x79, 0x3d,
  0xd3, 0x24, 0x5a, 0x3d, 0x29, 0x10, 0x04, 0x3f, 0x7c, 0xc7, 0xed, 0xbd,
  0x02, 0x02, 0x5e, 0xbd, 0xb4, 0xff, 0x3e, 0xbd, 0xba, 0x63, 0xba, 0x3e,
  0xac, 0xd3, 0x47, 0xbe, 0x3a, 0xa8, 0x27, 0x3e, 0xde, 0x9b, 0xd7, 0xbd,
  0xeb, 0x7f, 0xa9, 0xbe, 0xfd, 0x36, 0x89, 0xbe, 0x49, 0x92, 0xcb, 0x3c,
  0xc6, 0x48, 0x0c, 0x3f, 0x54, 0x01, 0x8c, 0x3e, 0x6c, 0x62, 0x93, 0xbe,
  0x94, 0x8f, 0x75, 0xbd, 0xb8, 0xc6, 0x7e, 0x3d, 0xf8, 0x32, 0xd2, 0x3e,
  0x17, 0xb5, 0x9a, 0xbd, 0xfb, 0x9d, 0xf9, 0x3e, 0x68, 0x94, 0x15, 0x3e,
  0x0a, 0x4c, 0xdd, 0x3e, 0xd9, 0x6c, 0x0d, 0x3e, 0x33, 0x8a, 0x26, 0x3f,
  0xd4, 0xdc, 0x99, 0x3e, 0xe6, 0x3e, 0x48, 0xbe, 0x26, 0xcb, 0x20, 0xbe,
  0xef, 0x7a, 0x6d, 0x3e, 0x99, 0xf7, 0xa2, 0xbe, 0xb6, 0x9a, 0x06, 0x3e,
  0xf7, 0xa4, 0x13, 0x3d, 0xf6, 0x63, 0xee, 0x3c, 0x93, 0xbd, 0x2e, 0x3f,
  0x0f, 0xd6, 0x45, 0xbe, 0xf1, 0xfd, 0x0b, 0x3d, 0x34, 0xa7, 0x8c, 0xbe,
  0x60, 0x55, 0x21, 0x3e, 0xaa, 0xea, 0xe3, 0xbe, 0x88, 0x5f, 0xba, 0xbe,
  0x7d, 0x22, 0x79, 0xbd, 0x54, 0x56, 0x40, 0x3e, 0x9b, 0x7c, 0x80, 0x3e,
  0x0a, 0xde, 0xee, 0x3e, 0x01, 0x3d, 0x93, 0x3e, 0x70, 0x64, 0xc4, 0xbe,
  0xf4, 0x52, 0x85, 0x3e, 0x49, 0xd9, 0x48, 0x3e, 0x99, 0x1b, 0xb1, 0x3d,
  0xc4, 0x27, 0xcf, 0xbe, 0x08, 0xf1, 0xce, 0xbd, 0x04, 0xa5, 0xd8, 0x3e,
  0xd6, 0x80, 0x73, 0x3d, 0xd6, 0xa1, 0xa5, 0x3d, 0x4f, 0xb7, 0xf8, 0x3d,
  0x38, 0x9a, 0xad, 0xbe, 0x01, 0x5b, 0xaa, 0x3d, 0xe0, 0x6b, 0x84, 0xbe,
  0xf0, 0xd7, 0xb2, 0xbd, 0x9d, 0xa9, 0xe9, 0xbe, 0xed, 0xcf, 0x2a, 0xbf,
  0xf5, 0x2d, 0x02, 0x3f, 0x5f, 0x8c, 0x7d, 0xbe, 0x9c, 0x2d, 0xad, 0xbe,
  0x79, 0x9e, 0x78, 0xbe, 0x9f, 0xdb, 0x01, 0x3f, 0xa5, 0x44, 0x57, 0x3e,
  0xbd, 0x52, 0xf2, 0xbe, 0x71, 0x99, 0x8c, 0xbe, 0x08, 0x7c, 0x81, 0x3e,
  0x28, 0x62, 0x89, 0xbd, 0x71, 0xb2, 0x29, 0x3d, 0x7f, 0x52, 0x8a, 0x3d,
  0x33, 0xea, 0x08, 0xbf, 0xdf, 0x40, 0xfa, 0x3e, 0xc8, 0x2e, 0x0c, 0x3e,
  0x25, 0xbd, 0xdf, 0x3e, 0xae, 0xec, 0x89, 0x3e, 0xdd, 0x1c, 0x17, 0xbf,
  0xda, 0xd1, 0x7c, 0xbc, 0xe9, 0xa8, 0xe8, 0xbe, 0x06, 0x33, 0x9c, 0xbd,
  0x70, 0x14, 0xb1, 0xbd, 0x51, 0x7d, 0x91, 0xbe, 0x8a, 0x98, 0xbd, 0x3e,
  0xaa, 0x39, 0xbf, 0xbe, 0xef, 0x98, 0xfb, 0xbe, 0x57, 0x26, 0xb8, 0x3e,
  0xab, 0x4d, 0xab, 0xbe, 0x71, 0x51, 0x2e, 0x3e, 0xf1, 0x95, 0x5e, 0xbe,
  0xc4, 0x4e, 0x9b, 0x3e, 0x99, 0x44, 0xd5, 0xbe, 0xa1, 0xd8, 0xd5, 0xbd,
  0x44, 0x98, 0xfb, 0xbe, 0x13, 0xbf, 0xa6, 0x3e, 0x6c, 0xfa, 0xd6, 0x3e,
  0x01, 0x28, 0xb7, 0xbe, 0x9f, 0x07, 0xa8, 0xbd, 0x8c, 0x41, 0x82, 0x3e,
  0xb1, 0x34, 0x97, 0x3e, 0x34, 0x39, 0x25, 0xbe, 0x7d, 0x9d, 0x93, 0xbd,
  0x68, 0x58, 0x5e, 0x3e, 0x7c, 0x57, 0xde, 0x3d, 0xb0, 0x82, 0xc1, 0x3e,
  0x54, 0x21, 0x06, 0xbe, 0xd6, 0xc0, 0x31, 0x3e, 0x1f, 0x21, 0x09, 0xbf,
  0xfc, 0x09, 0x0d, 0x3d, 0xaa, 0x98, 0xc1, 0xbc, 0xd2, 0x28, 0x26, 0xbd,
  0x42, 0x86, 0x15, 0x3e, 0xa4, 0x3c, 0x23, 0xbe, 0x85, 0xc9, 0x8c, 0x3e,
  0x6f, 0xac, 0x87, 0xbe, 0x6b, 0xb2, 0xf5, 0xbe, 0x02, 0xff, 0x38, 0x3f,
  0x0d, 0xf2, 0x14, 0xbe, 0xe1, 0xe0, 0xd8, 0xbe, 0x26, 0x38, 0xfe, 0xbc,
  0x5f, 0x64, 0x48, 0x3e, 0x6e, 0xfc, 0x6d, 0xbe, 0x95, 0xca, 0x0d, 0xbe,
  0xe3, 0xd8, 0x7e, 0x3e, 0x9d, 0x0a, 0x86, 0x3e, 0x76, 0xa5, 0xa2, 0x3c,
  0xe6, 0x2e, 0xbf, 0x3e, 0x45, 0x60, 0x08, 0xbb, 0x15, 0xd2, 0x57, 0xbd,
  0x2a, 0xc4, 0xb1, 0xbd, 0x5f, 0x85, 0x38, 0xbe, 0xff, 0x5b, 0x99, 0xbe,
  0x1f, 0xe3, 0xc4, 0xbd, 0x3f, 0x20, 0xa2, 0xbe, 0x5d, 0xc2, 0x5b, 0x3e,
  0x5d, 0x49, 0xd4, 0xbe, 0x1c, 0x9f, 0x20, 0x3f, 0x75, 0x6a, 0x63, 0xbe,
  0x54, 0xa3, 0x87, 0x3e, 0x1a, 0xb6, 0x9c, 0x3e, 0x86, 0x09, 0x40, 0xbe,
  0x2a, 0xf1, 0xec, 0x3e, 0x9b, 0xce, 0x2c, 0xbf, 0x2c, 0xba, 0x2a, 0xbe,
  0x45, 0x6b, 0x5f, 0xbe, 0x7f, 0x35, 0xc8, 0x3e, 0x2c, 0x58, 0xb2, 0x3e,
  0xa6, 0xdf, 0xdf, 0x3e, 0xb8, 0x6e, 0xb2, 0x3e, 0xa0, 0xb4, 0x79, 0xbd,
  0x60, 0x5f, 0x36, 0x3e, 0xf0, 0x59, 0x8e, 0xbe, 0x5a, 0x11, 0x29, 0x3f,
  0xf0, 0xeb, 0xcf, 0xbd, 0xd7, 0xb2, 0xac, 0xbc, 0x9b, 0xb3, 0x12, 0xbe,
  0x9a, 0x1a, 0x2e, 0x3e, 0x9b, 0xfe, 0x05, 0xbe, 0xaa, 0x41, 0x80, 0x3e,
  0xb3, 0x1e, 0xcd, 0xbe, 0x5f, 0x60, 0xfe, 0x3d, 0xa7, 0x36, 0x2d, 0x3e,
  0x29, 0x32, 0xd1, 0xbe, 0xc6, 0x4f, 0xcd, 0x3e, 0x12, 0xd0, 0x16, 0xbe,
  0xeb, 0xb7, 0xc6, 0xbe, 0x31, 0x9e, 0x76, 0x3e, 0xf0, 0xc4, 0xb6, 0xbe,
  0xa1, 0x62, 0xa2, 0xbe, 0xdd, 0x39, 0xb2, 0xbe, 0xe4, 0x2b, 0xa1, 0x3b,
  0x9d, 0x93, 0xc8, 0x3e, 0x17, 0x3f, 0x9a, 0x3e, 0xb0, 0x19, 0x2a, 0xbe,
  0x07, 0x26, 0xdd, 0x3e, 0xae, 0xf3, 0xff, 0xff, 0x10, 0x00, 0x00, 0x00,
  0x06, 0x00, 0x00, 0x00, 0x14, 0x00, 0x00, 0x00, 0x30, 0x00, 0x00, 0x00,
  0x02, 0x00, 0x00, 0x00, 0x0a, 0x00, 0x00, 0x00, 0x14, 0x00, 0x00, 0x00,
  0x19, 0x00, 0x00, 0x00, 0x73, 0x65, 0x71, 0x75, 0x65, 0x6e, 0x74, 0x69,
  0x61, 0x6c, 0x2f, 0x64, 0x65, 0x6e, 0x73, 0x65, 0x5f, 0x31, 0x2f, 0x4d,
  0x61, 0x74, 0x4d, 0x75, 0x6c, 0x00, 0x00, 0x00, 0x34, 0xf3, 0xff, 0xff,
  0x56, 0xf4, 0xff, 0xff, 0x04, 0x00, 0x00, 0x00, 0x50, 0x0a, 0x00, 0x00,
  0x69, 0x1d, 0x2c, 0xbe, 0x01, 0xf4, 0x5a, 0xbe, 0x9a, 0xe5, 0xdf, 0xbd,
  0x63, 0x68, 0x67, 0x3e, 0x48, 0xdb, 0xfc, 0x3d, 0x43, 0x8d, 0x3b, 0x3e,
  0x1a, 0xba, 0x10, 0xbe, 0x78, 0x0d, 0xba, 0x3b, 0x03, 0xba, 0x63, 0xbe,
  0xc2, 0xbc, 0x39, 0x3d, 0xf1, 0x4c, 0xb5, 0x3e, 0xdc, 0x09, 0x23, 0xbd,
  0xe7, 0x0a, 0x40, 0xbe, 0xbe, 0xf3, 0xf2, 0x3e, 0x8e, 0x66, 0x8a, 0x3e,
  0xd4, 0xe0, 0xc3, 0x3e, 0x26, 0xdf, 0x91, 0x3e, 0x2e, 0x8f, 0x10, 0xbe,
  0x51, 0x91, 0xe7, 0x3e, 0x96, 0x0f, 0x5f, 0x3d, 0x98, 0x8c, 0xef, 0x3e,
  0x32, 0xc6, 0xbf, 0xbe, 0x96, 0x0f, 0x85, 0x3e, 0x25, 0x28, 0xdf, 0xbd,
  0x7b, 0xed, 0x8d, 0xbe, 0x0a, 0x84, 0x53, 0xbd, 0x70, 0xa6, 0x90, 0xbe,
  0xf4, 0x5b, 0x4e, 0x3e, 0xed, 0x5a, 0x99, 0xbc, 0xdb, 0xde, 0x20, 0xbe,
  0x2b, 0xed, 0x9f, 0xbe, 0x31, 0x7c, 0xda, 0xbe, 0x1a, 0x48, 0x83, 0xbd,
  0xbc, 0xba, 0xa5, 0x3e, 0x3e, 0xc9, 0xb5, 0x3e, 0x0f, 0x0a, 0x98, 0x3e,
  0x34, 0x3f, 0x82, 0xbd, 0x8c, 0x8e, 0xed, 0x3d, 0xad, 0xfc, 0x9b, 0x3e,
  0x26, 0xa5, 0xb7, 0x3e, 0x0a, 0x8a, 0xc2, 0x3e, 0xd1, 0x0f, 0x9a, 0xbd,
  0xcf, 0x7b, 0x07, 0x3f, 0xd1, 0x2c, 0x98, 0x3e, 0xbb, 0xb7, 0x9f, 0xbe,
  0x88, 0xf2, 0x2e, 0xbd, 0xb0, 0xea, 0xda, 0xbe, 0xb7, 0x72, 0x15, 0xbe,
  0xa4, 0xef, 0xd4, 0xbd, 0xf3, 0xc4, 0x7a, 0xbd, 0x88, 0xe3, 0xde, 0xbd,
  0xcc, 0xb2, 0x8c, 0x3d, 0xf5, 0x65, 0x98, 0xbd, 0x70, 0x09, 0x56, 0xbe,
  0x0b, 0x73, 0xb2, 0xbe, 0x36, 0x40, 0x91, 0xbd, 0xeb, 0x1c, 0x8c, 0x3c,
  0x4b, 0x7d, 0xac, 0x3e, 0x19, 0x55, 0x93, 0x3d, 0xad, 0xda, 0x8f, 0x3e,
  0x4b, 0x46, 0x27, 0x3d, 0x8f, 0xa7, 0xb7, 0xbe, 0xcc, 0x84, 0x6e, 0x3d,
  0x1d, 0x39, 0x07, 0x3f, 0xb9, 0xe1, 0x07, 0x3f, 0xe5, 0x89, 0x00, 0xbe,
  0x21, 0x54, 0x59, 0x3d, 0xcd, 0x9d, 0xb0, 0xbe, 0x6d, 0xef, 0x9a, 0xbe,
  0x61, 0x7f, 0x92, 0x3e, 0xe3, 0x7a, 0x1a, 0xbe, 0x8a, 0xa4, 0x7d, 0x3d,
  0x86, 0x85, 0xc7, 0xbe, 0x26, 0x38, 0xa1, 0xbe, 0xf8, 0x5e, 0x71, 0xbd,
  0x9b, 0xa3, 0x05, 0xbe, 0x2f, 0x68, 0xab, 0xbe, 0xee, 0x88, 0xba, 0x3c,
  0x38, 0xab, 0xe8, 0xbd, 0xc4, 0x3a, 0xbc, 0xbd, 0x32, 0xd7, 0x5a, 0x3e,
  0x9a, 0xa6, 0x67, 0xbe, 0xbe, 0x8d, 0x83, 0xbe, 0x19, 0x9a, 0xe0, 0xbd,
  0xa7, 0x59, 0x0e, 0x3e, 0x6d, 0x8e, 0xf7, 0xbe, 0x99, 0x0d, 0x85, 0x3e,
  0x70, 0xbc, 0x43, 0x3d, 0x87, 0x8c, 0xad, 0xbd, 0x79, 0xb6, 0x05, 0xbe,
  0x66, 0x65, 0x62, 0xbd, 0xc1, 0xe7, 0xe8, 0x3e, 0xbd, 0x45, 0xb2, 0x3d,
  0x3c, 0x29, 0xef, 0x3c, 0xc9, 0xcd, 0x1b, 0x3e, 0x18, 0x2c, 0xc4, 0x3d,
  0xa6, 0xa8, 0x5b, 0x3d, 0x23, 0x46, 0x93, 0x3e, 0x03, 0x31, 0x9f, 0xbe,
  0xdb, 0x94, 0xbf, 0xbe, 0xe2, 0xa8, 0xae, 0xbd, 0xbf, 0x10, 0xa3, 0xbe,
  0x3e, 0x4c, 0xec, 0x3d, 0x6c, 0x82, 0xed, 0x3c, 0x7c, 0x7c, 0xb0, 0x3c,
  0x13, 0xb5, 0x8f, 0xbe, 0x35, 0xf8, 0x3b, 0xbc, 0x52, 0xd4, 0x74, 0x3c,
  0xd4, 0x8f, 0x81, 0x3e, 0xb5, 0x02, 0x90, 0x3c, 0xfe, 0xc8, 0xac, 0xbe,
  0x4c, 0xfd, 0xce, 0x3c, 0x0e, 0x01, 0xdc, 0x3d, 0xeb, 0xae, 0x4d, 0x3d,
  0x04, 0xf2, 0x18, 0xbe, 0xc3, 0xa6, 0xd9, 0xbd, 0x80, 0x0f, 0xba, 0xbd,
  0xff, 0x35, 0x8f, 0x3e, 0xd6, 0xf5, 0x28, 0x3e, 0x85, 0x3f, 0xb5, 0xbe,
  0xa1, 0xdf, 0x65, 0xbe, 0x21, 0xbd, 0xae, 0x3e, 0x55, 0xc2, 0x59, 0xbd,
  0x81, 0xea, 0xa6, 0xbc, 0x3e, 0x7f, 0x77, 0x3e, 0x6c, 0x52, 0xea, 0xbc,
  0x0a, 0x6a, 0xf9, 0xbd, 0x66, 0x03, 0x6a, 0x3e, 0xe7, 0x6c, 0x40, 0x3d,
  0x4b, 0x26, 0xa4, 0xbc, 0x79, 0xcf, 0x92, 0x3e, 0xdd, 0x16, 0x99, 0x3d,
  0xac, 0x8d, 0x4b, 0xbd, 0x99, 0x64, 0xb1, 0x3e, 0x02, 0x06, 0x77, 0xbe,
  0xbc, 0x04, 0x15, 0x3e, 0x98, 0x91, 0x81, 0x3d, 0x46, 0x40, 0x73, 0x3e,
  0x36, 0xa0, 0x7f, 0xbe, 0x76, 0xef, 0x7e, 0xbe, 0x98, 0xbd, 0x0b, 0xbd,
  0xb2, 0xf2, 0xfa, 0x3a, 0x3d, 0xfd, 0x0c, 0x3e, 0x41, 0x4d, 0xf0, 0x3b,
  0x50, 0x54, 0xb8, 0x3d, 0xfc, 0x00, 0xa7, 0xbd, 0x4f, 0x4e, 0x9e, 0xbe,
  0x0f, 0x0d, 0xd7, 0x3d, 0xb0, 0x43, 0xd3, 0xbc, 0x69, 0xef, 0xe4, 0x3c,
  0xb8, 0x37, 0xa0, 0x3c, 0x77, 0xad, 0x0c, 0x3d, 0xd4, 0x84, 0xc9, 0x3c,
  0x60, 0xab, 0xa6, 0xbd, 0x61, 0x41, 0x37, 0xbe, 0x6a, 0x74, 0xe2, 0x3d,
  0x68, 0xcc, 0xa2, 0xbd, 0x62, 0x18, 0x55, 0xbe, 0x9d, 0x48, 0xa4, 0x3e,
  0x78, 0x84, 0x25, 0x3e, 0x71, 0x88, 0xaa, 0x3e, 0x5e, 0x59, 0xc6, 0x3c,
  0x60, 0xb5, 0x97, 0xbd, 0x65, 0xea, 0x56, 0xbe, 0x59, 0xe5, 0x49, 0xbe,
  0x73, 0x94, 0x90, 0x3e, 0xe7, 0x7e, 0x23, 0xbe, 0xaa, 0xe0, 0xcd, 0xbc,
  0xe7, 0xcc, 0x21, 0xbe, 0xbc, 0xcd, 0x80, 0xbd, 0xde, 0x52, 0x80, 0x3e,
  0xbd, 0xb5, 0x22, 0x3e, 0x86, 0x0f, 0x85, 0x3d, 0xdd, 0x22, 0xc3, 0x3d,
  0xce, 0x25, 0x90, 0xbe, 0x86, 0x60, 0x4e, 0xbe, 0x5a, 0x9a, 0x15, 0xbe,
  0x37, 0x92, 0xb1, 0x3e, 0x50, 0xd4, 0xac, 0xbd, 0xbc, 0xc6, 0x8e, 0x3e,
  0x16, 0x4a, 0xe4, 0x3d, 0x4d, 0xd5, 0xc8, 0xbd, 0x77, 0x29, 0xad, 0x3d,
  0x92, 0xf5, 0x59, 0x3e, 0x61, 0xda, 0xc1, 0x3e, 0xcb, 0x19, 0xfc, 0xbd,
  0x14, 0x15, 0xb4, 0xbe, 0x64, 0x61, 0x2c, 0xb8, 0x83, 0x05, 0x34, 0x3c,
  0xac, 0x92, 0x39, 0xbe, 0xdb, 0xe0, 0x43, 0x3e, 0x86, 0x41, 0x8b, 0xbd,
  0x4d, 0x75, 0xc6, 0xbc, 0xac, 0x44, 0xb5, 0x3e, 0x62, 0xed, 0x13, 0x3d,
  0xe1, 0xab, 0x22, 0x3c, 0x1b, 0x93, 0xbb, 0x3e, 0x1c, 0x26, 0x2b, 0xbd,
  0x24, 0x7d, 0xa0, 0xbe, 0x86, 0x23, 0xe3, 0x3e, 0xc8, 0x37, 0x6c, 0xbd,
  0x7e, 0x47, 0xb3, 0x3d, 0x6d, 0x25, 0xeb, 0xbd, 0xef, 0xce, 0x5b, 0x3e,
  0xc8, 0x7a, 0x67, 0x3e, 0xd0, 0xcc, 0x8d, 0xbe, 0xf5, 0xbd, 0xa8, 0xbe,
  0x59, 0xda, 0xdf, 0x3d, 0x44, 0xbe, 0xc0, 0xbd, 0x83, 0xf7, 0xbb, 0xbe,
  0xfa, 0x2e, 0x89, 0xbe, 0x74, 0xe4, 0x51, 0xbe, 0x43, 0x82, 0xaf, 0x3e,
  0x77, 0x27, 0x53, 0x3e, 0x01, 0x30, 0x14, 0x3e, 0x4b, 0x47, 0xb3, 0x3e,
  0xbf, 0xea, 0xfb, 0x3c, 0xba, 0x43, 0x4b, 0xbe, 0x5c, 0x94, 0xfb, 0x3c,
  0x03, 0x41, 0x2f, 0x3e, 0x7a, 0x68, 0xf9, 0x3e, 0x30, 0xb4, 0x5c, 0xbe,
  0xdf, 0xe4, 0x91, 0x3e, 0x7e, 0xb0, 0x10, 0xbe, 0x97, 0x2b, 0x2b, 0xbd,
  0xca, 0xbf, 0x89, 0x3e, 0x1c, 0x41, 0xa7, 0x3e, 0x68, 0xa6, 0x22, 0x3e,
  0x31, 0x78, 0x89, 0x3e, 0x11, 0x7c, 0xe7, 0x3d, 0xf8, 0x9a, 0x99, 0xba,
  0x25, 0x9e, 0x0f, 0xbd, 0x80, 0x6b, 0xc5, 0x3e, 0x39, 0xab, 0x42, 0xbe,
  0xfe, 0x6c, 0xc7, 0x3c, 0x1a, 0x31, 0x19, 0xbe, 0x6e, 0x62, 0xe3, 0x3e,
  0xaf, 0x14, 0x39, 0x3e, 0x7e, 0x2f, 0x4f, 0xbe, 0x3c, 0x3e, 0x6a, 0x3e,
  0x4a, 0xab, 0x98, 0xbe, 0x38, 0x24, 0x09, 0x3e, 0xd0, 0xb5, 0x3b, 0x3d,
  0x97, 0x08, 0xa8, 0xbe, 0xce, 0x1e, 0xca, 0xbd, 0x5e, 0xe9, 0xac, 0xbe,
  0xf8, 0x64, 0x8e, 0x3d, 0x94, 0x0c, 0x30, 0xbe, 0x17, 0x90, 0xde, 0xbe,
  0xc2, 0x35, 0x84, 0x3e, 0x9c, 0x6d, 0x82, 0x3d, 0x05, 0x0d, 0x04, 0xbd,
  0x5e, 0x4f, 0x97, 0xbe, 0xdb, 0x80, 0x44, 0xbe, 0x53, 0x66, 0xf7, 0xbb,
  0x9b, 0xf9, 0x1b, 0x3d, 0x3a, 0xd0, 0xe7, 0xbe, 0xd7, 0xe6, 0xba, 0x3e,
  0x95, 0xbf, 0x7f, 0x3e, 0x5d, 0xca, 0x8d, 0x3e, 0x80, 0x3a, 0x81, 0x3e,
  0x7b, 0xc2, 0xcc, 0xbe, 0x7c, 0xab, 0xfb, 0x3e, 0x1e, 0xe5, 0xbd, 0xbe,
  0x24, 0x5a, 0x18, 0x3e, 0xfc, 0x67, 0x3a, 0x3d, 0x59, 0x8b, 0x3f, 0x3e,
  0x89, 0x73, 0x69, 0xbe, 0xca, 0x08, 0xbf, 0x3e, 0x64, 0x41, 0xa6, 0x3e,
  0xfc, 0x8c, 0x10, 0x3d, 0x29, 0xa1, 0xf1, 0x3d, 0x2a, 0x98, 0xa2, 0x3e,
  0xd4, 0x55, 0x06, 0xbe, 0xea, 0xc3, 0xe0, 0xbe, 0xe1, 0x27, 0x8c, 0x3e,
  0x19, 0xda, 0xb5, 0xbd, 0x97, 0x9a, 0xcc, 0xbd, 0xda, 0x80, 0x71, 0xbe,
  0x69, 0xc0, 0x78, 0xbe, 0x03, 0xa1, 0x90, 0x3d, 0xe4, 0xb1, 0x28, 0xbe,
  0xfb, 0xde, 0x96, 0x3e, 0xd0, 0xd6, 0x3e, 0x3e, 0x12, 0x8d, 0x00, 0x3e,
  0x61, 0xa1, 0x50, 0xbe, 0x96, 0xff, 0x70, 0x3d, 0xd2, 0x9c, 0x1e, 0xbe,
  0xa4, 0x89, 0x7a, 0xbb, 0x5a, 0xba, 0x9d, 0x3e, 0xef, 0xd6, 0xa1, 0xbe,
  0x76, 0xdb, 0x14, 0x3e, 0xe2, 0x39, 0xaf, 0x3e, 0xb8, 0x5f, 0x13, 0xbd,
  0xc8, 0x67, 0xad, 0xbd, 0x7c, 0xb6, 0xb8, 0x3e, 0x4b, 0x9a, 0x88, 0xbd,
  0x62, 0x1d, 0xd5, 0xbd, 0xee, 0x0c, 0x4b, 0x3c, 0x57, 0xa0, 0x72, 0xbd,
  0x0c, 0xf0, 0x29, 0x3e, 0x6f, 0x49, 0x8b, 0xbe, 0xcc, 0x3e, 0x6a, 0xbd,
  0xa2, 0xbb, 0xc9, 0xbd, 0x40, 0x0c, 0x13, 0xbe, 0x66, 0x28, 0x26, 0x3d,
  0xb3, 0xbc, 0x44, 0xbe, 0x34, 0xc4, 0xa3, 0xbd, 0xb7, 0x5e, 0x68, 0xbd,
  0x9b, 0x7a, 0x29, 0xbe, 0x64, 0x99, 0x41, 0x3d, 0x6d, 0xa7, 0xcf, 0x3c,
  0x75, 0xed, 0x80, 0xbe, 0x97, 0x48, 0xad, 0x3c, 0x84, 0x1e, 0x67, 0x3e,
  0xaf, 0x8f, 0xbe, 0x3e, 0xb8, 0xf6, 0x5a, 0xbe, 0x9d, 0x29, 0x86, 0x3e,
  0xfc, 0x33, 0xc2, 0xbe, 0x65, 0x4b, 0x6d, 0xbd, 0x7c, 0x17, 0x86, 0x3e,
  0x1c, 0xee, 0x55, 0x3e, 0x11, 0x7d, 0x91, 0xbe, 0xa7, 0x40, 0x00, 0xbe,
  0x52, 0x8c, 0x11, 0xbe, 0x1d, 0xef, 0x8f, 0x3e, 0xb1, 0x43, 0x1f, 0x3e,
  0x9f, 0xd9, 0x62, 0xbe, 0x9f, 0xb9, 0xa8, 0x3d, 0x36, 0x33, 0x19, 0xbd,
  0xb3, 0x32, 0xcc, 0xbe, 0x5d, 0xce, 0xdc, 0xbd, 0xbb, 0x4f, 0xdb, 0xbe,
  0xaf, 0x9c, 0xb1, 0xbe, 0x8e, 0x21, 0x5a, 0x3e, 0x36, 0x02, 0xcb, 0xbd,
  0x9e, 0xa4, 0x2e, 0x3d, 0x10, 0x8a, 0x1c, 0xbe, 0xab, 0xf7, 0xa0, 0xbd,
  0x49, 0xfa, 0x89, 0x3d, 0xb5, 0x1c, 0x0a, 0xbd, 0x13, 0x71, 0xb4, 0x3e,
  0xd0, 0x4a, 0x43, 0x3e, 0x24, 0x20, 0xc5, 0x3e, 0x7b, 0x09, 0x15, 0x3e,
  0x17, 0x4a, 0xf2, 0xbd, 0x99, 0xf1, 0x34, 0xbd, 0x00, 0x1e, 0xa7, 0x3e,
  0x26, 0xfb, 0x00, 0xbe, 0xd7, 0x94, 0x51, 0xbc, 0xdf, 0xc7, 0x83, 0xbe,
  0xe2, 0x74, 0x34, 0x3e, 0x97, 0xf2, 0x8c, 0x3e, 0x3e, 0x6d, 0x76, 0xbe,
  0x58, 0x5f, 0xbf, 0xbd, 0x26, 0x34, 0x2d, 0x3e, 0x14, 0x78, 0x3d, 0xbe,
  0x11, 0x98, 0x69, 0x3e, 0xf0, 0xd4, 0x96, 0x3d, 0x12, 0x75, 0x67, 0xbe,
  0x1a, 0xf4, 0xc8, 0x3e, 0xcd, 0x12, 0x98, 0x3c, 0x9c, 0x3d, 0x67, 0xbe,
  0xaf, 0x4d, 0x9f, 0x3e, 0x8c, 0xa1, 0x1f, 0x3e, 0x8b, 0xf5, 0x9c, 0x3d,
  0xe6, 0x7d, 0xf5, 0xbd, 0x6a, 0xfe, 0xb4, 0xbc, 0x42, 0x9f, 0x76, 0x3e,
  0x4a, 0x18, 0xdd, 0x3c, 0x0c, 0x70, 0x80, 0x3e, 0x42, 0x81, 0xc0, 0x3e,
  0x95, 0xd6, 0x10, 0x3f, 0x96, 0x9b, 0x52, 0xbe, 0x2b, 0x4d, 0x2b, 0x3e,
  0xeb, 0xdb, 0x4d, 0xbd, 0x92, 0x56, 0x96, 0xbe, 0x57, 0x25, 0x68, 0xbe,
  0x53, 0x6f, 0x17, 0x3e, 0x15, 0x4a, 0x96, 0x3d, 0xe5, 0x9c, 0x8e, 0x3e,
  0xb2, 0x7b, 0xd5, 0x3d, 0x53, 0xb9, 0x26, 0x3e, 0x0e, 0xde, 0x1c, 0x3e,
  0x08, 0xc8, 0x86, 0xbe, 0x86, 0xbe, 0x6e, 0xbd, 0x46, 0xf3, 0xe4, 0x3d,
  0x7d, 0x7b, 0x51, 0x3e, 0x75, 0xd7, 0x81, 0xbe, 0x92, 0x7f, 0xa2, 0xbd,
  0x5c, 0x93, 0x24, 0x3e, 0x46, 0xa4, 0xb6, 0xbe, 0x56, 0xa5, 0xa3, 0x3d,
  0x23, 0xb5, 0xa8, 0xbe, 0xda, 0x5c, 0xb9, 0x3d, 0xcc, 0x45, 0x85, 0xbe,
  0xb1, 0x06, 0xec, 0x3d, 0x2b, 0xe7, 0xa7, 0x3e, 0xcd, 0xb1, 0x59, 0x3d,
  0x84, 0x05, 0x44, 0xbe, 0xc6, 0x89, 0x5f, 0x3e, 0x22, 0xa8, 0x45, 0xbe,
  0x8a, 0x89, 0x03, 0x3e, 0xbe, 0xc0, 0x80, 0xbe, 0xcc, 0x39, 0x1b, 0xbe,
  0x35, 0x0b, 0x85, 0x3e, 0x0b, 0x82, 0xf8, 0x3d, 0x0d, 0xee, 0x33, 0xbe,
  0xaf, 0x25, 0x19, 0xbe, 0xbc, 0x1e, 0x80, 0x3e, 0xe1, 0x9f, 0x76, 0x3e,
  0xfc, 0xed, 0xb2, 0xbe, 0x99, 0x59, 0x4a, 0x3e, 0x61, 0x90, 0x10, 0x3d,
  0xc2, 0xd3, 0xda, 0xbe, 0x2f, 0x5e, 0x7b, 0xbe, 0x95, 0x80, 0xcb, 0xbe,
  0x7e, 0xa1, 0xd5, 0x3d, 0x47, 0x83, 0xbc, 0x3e, 0x76, 0x94, 0x62, 0xbd,
  0xd3, 0x18, 0x3c, 0xbe, 0xd8, 0xda, 0xfa, 0xbd, 0x8a, 0x1e, 0x3c, 0xbe,
  0x56, 0xbe, 0x28, 0x3d, 0x4f, 0xee, 0x3d, 0x3e, 0x1b, 0xea, 0x5d, 0xbd,
  0xf5, 0xea, 0x99, 0x3e, 0x9c, 0xca, 0x12, 0xbc, 0x1c, 0xba, 0x6e, 0xb9,
  0x6b, 0x77, 0x0e, 0x3d, 0x52, 0xc3, 0x12, 0x3e, 0x53, 0x66, 0xca, 0xbd,
  0x32, 0xef, 0x39, 0x3e, 0x12, 0x49, 0x02, 0xbd, 0xaf, 0x0a, 0x53, 0xbe,
  0x3e, 0xfa, 0x14, 0x3d, 0x1f, 0xfb, 0x16, 0xbe, 0x11, 0xf4, 0x1f, 0x3d,
  0x5e, 0xff, 0x96, 0x3e, 0xd0, 0xe6, 0xb5, 0x3e, 0x53, 0x8e, 0x88, 0x3e,
  0x2b, 0xd0, 0x4a, 0x3e, 0x12, 0x4b, 0x29, 0xbe, 0xc6, 0xa8, 0x0d, 0xbd,
  0x01, 0x45, 0xd5, 0x3d, 0x8d, 0x93, 0xfd, 0xbd, 0x3c, 0x12, 0x52, 0xbc,
  0xdf, 0xdf, 0x8f, 0x3c, 0x4d, 0x03, 0x60, 0x3e, 0xf9, 0xda, 0xcc, 0xbe,
  0x01, 0x92, 0xbb, 0xbd, 0xc9, 0x9e, 0xc9, 0x3d, 0x9b, 0x79, 0x0f, 0xbe,
  0x93, 0xee, 0xc4, 0xbe, 0xb2, 0xc6, 0x94, 0x3e, 0x18, 0x1e, 0x5e, 0x3e,
  0xd0, 0x7e, 0x6a, 0x3a, 0xe7, 0x17, 0x36, 0x3e, 0xf2, 0x94, 0x49, 0xbe,
  0xd2, 0x09, 0x9f, 0xbe, 0x12, 0x72, 0x81, 0x3e, 0x39, 0xbe, 0xb1, 0x3d,
  0xf7, 0xce, 0x56, 0xbe, 0x98, 0x1a, 0xb0, 0xbe, 0x21, 0xa9, 0xa2, 0x3e,
  0x44, 0x0a, 0x22, 0xbe, 0xb0, 0x76, 0x21, 0x3e, 0xa0, 0x66, 0xe9, 0xbd,
  0x9e, 0x72, 0x2d, 0x3e, 0xe0, 0x6a, 0x45, 0x3e, 0x7e, 0x71, 0x9b, 0x3c,
  0xd9, 0xce, 0x0a, 0xbe, 0x3a, 0x4c, 0x96, 0xbe, 0x9e, 0x8e, 0x8f, 0xbd,
  0xcd, 0x71, 0x92, 0xbe, 0x46, 0xdc, 0xd0, 0xbd, 0xe7, 0x87, 0xa4, 0x3c,
  0x66, 0xde, 0x84, 0xbd, 0xeb, 0x52, 0x38, 0xbe, 0xf2, 0x09, 0x1b, 0xbe,
  0xe9, 0xe9, 0x1d, 0xbe, 0xf0, 0x97, 0x53, 0xbe, 0x16, 0x2a, 0x74, 0x3d,
  0xec, 0xda, 0x05, 0x3e, 0x2f, 0x64, 0x51, 0xbe, 0x96, 0xc8, 0xdc, 0x3d,
  0xf8, 0x7a, 0x35, 0x3e, 0x00, 0x26, 0x56, 0x3c, 0x26, 0x70, 0x7c, 0xbe,
  0x38, 0x1e, 0x3d, 0xbd, 0x86, 0x1d, 0x0e, 0xbe, 0x4a, 0xb4, 0x34, 0x3c,
  0xb2, 0xf0, 0x30, 0x3d, 0xce, 0x58, 0xac, 0xbc, 0xf3, 0x48, 0x67, 0x3e,
  0x2c, 0x37, 0x8a, 0xbe, 0x9b, 0x5e, 0x89, 0x3e, 0x4f, 0x25, 0x29, 0xbe,
  0xc5, 0x3f, 0x5d, 0x3d, 0xac, 0xd1, 0x10, 0xbe, 0x3f, 0x7e, 0x68, 0x3e,
  0x85, 0xdb, 0x8c, 0xbe, 0xc5, 0x0b, 0x5c, 0xbe, 0xa1, 0x0e, 0xd2, 0xbd,
  0xbe, 0x91, 0x4f, 0x3e, 0x5c, 0x63, 0x85, 0xbe, 0xe5, 0x21, 0xca, 0x3d,
  0xd9, 0xe0, 0x42, 0xbe, 0xdb, 0xf7, 0x0f, 0xbe, 0xbf, 0x6a, 0x8a, 0x3e,
  0xd9, 0xc7, 0xa5, 0xbe, 0x16, 0x92, 0x9a, 0xbc, 0x39, 0x0c, 0x5d, 0x3e,
  0x83, 0xf6, 0x1f, 0x3e, 0xed, 0x8b, 0x43, 0x3e, 0xe9, 0xae, 0x21, 0x3d,
  0xe1, 0x9c, 0x41, 0xbe, 0xba, 0x25, 0xf7, 0x3c, 0xaa, 0xa7, 0x9f, 0xbe,
  0xec, 0xd3, 0x49, 0xbe, 0xe4, 0x07, 0x15, 0xbe, 0x46, 0xa1, 0x0b, 0x3e,
  0xe3, 0x2d, 0x59, 0x3d, 0x16, 0x91, 0x3a, 0xbd, 0x06, 0x5b, 0x38, 0xbd,
  0x31, 0x0d, 0xb2, 0xbe, 0x8f, 0x75, 0x98, 0xbe, 0xd6, 0xbc, 0x9f, 0xbe,
  0x42, 0xfd, 0x8f, 0xbe, 0x07, 0x2e, 0x81, 0x3e, 0x08, 0xfa, 0x2a, 0x3e,
  0x60, 0x12, 0xcc, 0x3c, 0x9c, 0x87, 0xba, 0xbc, 0xff, 0x5f, 0x6b, 0x3b,
  0xf4, 0x4e, 0x20, 0xbd, 0xfb, 0x0f, 0x58, 0xbe, 0x8e, 0x55, 0xb5, 0xbd,
  0xc7, 0x8a, 0x6a, 0x3d, 0x17, 0x89, 0x15, 0x3d, 0x94, 0xfd, 0x98, 0xbe,
  0x1a, 0x7b, 0x4d, 0xbe, 0x5d, 0xf7, 0xa5, 0xbe, 0x4e, 0x14, 0x85, 0xbe,
  0xea, 0x89, 0xfe, 0x3d, 0x71, 0x8d, 0x56, 0x3e, 0x14, 0x37, 0x07, 0x3e,
  0xd7, 0x51, 0x97, 0xbe, 0x8b, 0x73, 0x61, 0xbd, 0x49, 0xb3, 0x4d, 0xbe,
  0x9e, 0xe2, 0xab, 0xbe, 0x14, 0xde, 0x47, 0xbe, 0x49, 0x3c, 0x5a, 0x3e,
  0x11, 0x0c, 0x24, 0x3e, 0x97, 0xe8, 0xc5, 0x3d, 0xdf, 0xa3, 0xf3, 0xbd,
  0x9f, 0xf5, 0x3c, 0x3d, 0xfa, 0x5f, 0xb7, 0x3e, 0xbf, 0x25, 0x97, 0x3e,
  0x15, 0xd8, 0x2b, 0x3c, 0x92, 0xec, 0xb9, 0xbd, 0x46, 0xaa, 0x8a, 0xbd,
  0x9d, 0xe2, 0xbf, 0xbe, 0x1c, 0xec, 0x05, 0x3e, 0x63, 0x89, 0xd3, 0xbe,
  0x17, 0x8c, 0x1e, 0xbe, 0xc3, 0x6d, 0x79, 0x3e, 0x0a, 0x8d, 0xec, 0xbc,
  0xc0, 0x2b, 0x1d, 0x3e, 0xd4, 0xd0, 0xe7, 0x3d, 0xb3, 0xf9, 0x60, 0xbe,
  0xf0, 0x1e, 0x42, 0xbd, 0xf7, 0x98, 0x7b, 0xbc, 0xc7, 0xfe, 0x4b, 0x3e,
  0x51, 0xf3, 0x54, 0x3e, 0x26, 0xd2, 0x8c, 0x3d, 0xbc, 0xfa, 0x03, 0x3c,
  0x9e, 0x6d, 0xe4, 0x3c, 0xff, 0xf7, 0xa2, 0xbc, 0x35, 0x5d, 0xa4, 0x3b,
  0xf3, 0x8b, 0x64, 0xbd, 0x96, 0x13, 0x58, 0x3e, 0xd1, 0xb4, 0xc4, 0xbe,
  0x97, 0xba, 0x28, 0x3e, 0x98, 0x7f, 0xc6, 0x3e, 0x8d, 0x5f, 0xe8, 0xbd,
  0x8f, 0x8d, 0xeb, 0x3e, 0xb7, 0x06, 0xbf, 0xbd, 0x9b, 0xa9, 0x4f, 0xbe,
  0x8a, 0x32, 0xe1, 0x3e, 0xc5, 0x90, 0x9c, 0x3e, 0x9a, 0xd3, 0xaa, 0x3e,
  0xf6, 0x82, 0x93, 0x3e, 0x24, 0x34, 0x5f, 0x3e, 0xae, 0xdf, 0x66, 0x3e,
  0x2e, 0xce, 0xa9, 0xbe, 0x78, 0xef, 0x97, 0x3d, 0x87, 0xa4, 0x37, 0x3e,
  0x8f, 0xe9, 0x54, 0x3e, 0xd2, 0xc6, 0x1e, 0x3e, 0x70, 0xc1, 0x84, 0x3d,
  0x9b, 0x34, 0x30, 0xbd, 0x47, 0x49, 0xb7, 0xbe, 0x27, 0xef, 0xc1, 0xbe,
  0xbf, 0xba, 0xa6, 0xbe, 0xc5, 0x0f, 0x3f, 0xbe, 0x85, 0x57, 0xaa, 0xbd,
  0xd7, 0xd2, 0xb3, 0x3e, 0xd1, 0x95, 0x38, 0x3e, 0xd1, 0xb5, 0xca, 0xbd,
  0x37, 0xdb, 0xa2, 0x3e, 0x10, 0xd0, 0x56, 0xbe, 0x60, 0x57, 0x30, 0xbb,
  0xba, 0xc5, 0x93, 0x3b, 0x11, 0x67, 0x51, 0x3e, 0x5d, 0xec, 0x80, 0x3e,
  0x45, 0xf9, 0x8b, 0xbe, 0x4e, 0x96, 0x52, 0xbe, 0xfb, 0x13, 0xd6, 0x3e,
  0xcb, 0x92, 0xad, 0xbe, 0xc1, 0x7a, 0xa4, 0xbe, 0xf7, 0xda, 0xa0, 0x3e,
  0x8c, 0x31, 0xd6, 0x3c, 0xf9, 0xb8, 0x42, 0x3e, 0x29, 0xdd, 0x2b, 0x3e,
  0x54, 0xe1, 0xc5, 0x3d, 0xb5, 0x72, 0x43, 0xbb, 0x92, 0xe7, 0x20, 0x3e,
  0xed, 0x8e, 0x05, 0x3d, 0x90, 0x05, 0xc9, 0x3c, 0xfb, 0xd7, 0xc2, 0x3e,
  0xdc, 0x64, 0x60, 0x3e, 0x20, 0xec, 0x23, 0x3d, 0xbb, 0x3b, 0x94, 0x3c,
  0x2f, 0x6e, 0x04, 0x3b, 0x1a, 0xf4, 0x4d, 0xbe, 0x23, 0x03, 0x08, 0x3f,
  0x87, 0xbb, 0x07, 0x3f, 0x0d, 0xbd, 0x75, 0xbe, 0x94, 0x5d, 0xc2, 0x3d,
  0x04, 0x04, 0x1a, 0xbe, 0xb2, 0x73, 0x47, 0xbe, 0x8b, 0x0d, 0x5c, 0x3e,
  0x23, 0x84, 0x8e, 0x3d, 0x62, 0xed, 0x36, 0x3e, 0x59, 0x4d, 0x82, 0xbe,
  0x35, 0x6a, 0xcf, 0xbd, 0x42, 0xb7, 0x7f, 0x3c, 0xeb, 0x5e, 0xf7, 0x3c,
  0x64, 0xfa, 0x52, 0x3c, 0x30, 0x9a, 0x7b, 0x3e, 0x87, 0xc7, 0x83, 0xbe,
  0x8f, 0x79, 0x4e, 0x3e, 0xd8, 0x86, 0x9b, 0x3e, 0x7b, 0x89, 0xad, 0xbd,
  0x68, 0x2c, 0xad, 0x3e, 0xa2, 0x83, 0x62, 0xbe, 0xcb, 0x40, 0xf7, 0xbe,
  0xd3, 0xb3, 0xc3, 0xbe, 0xd7, 0xea, 0x93, 0xbe, 0xf6, 0xbb, 0x8d, 0x3e,
  0x4e, 0xfe, 0xff, 0xff, 0x10, 0x00, 0x00, 0x00, 0x05, 0x00, 0x00, 0x00,
  0x14, 0x00, 0x00, 0x00, 0x2c, 0x00, 0x00, 0x00, 0x02, 0x00, 0x00, 0x00,
  0x14, 0x00, 0x00, 0x00, 0x21, 0x00, 0x00, 0x00, 0x17, 0x00, 0x00, 0x00,
  0x73, 0x65, 0x71, 0x75, 0x65, 0x6e, 0x74, 0x69, 0x61, 0x6c, 0x2f, 0x64,
  0x65, 0x6e, 0x73, 0x65, 0x2f, 0x4d, 0x61, 0x74, 0x4d, 0x75, 0x6c, 0x00,
  0xd0, 0xfd, 0xff, 0xff, 0xf2, 0xfe, 0xff, 0xff, 0x04, 0x00, 0x00, 0x00,
  0x18, 0x00, 0x00, 0x00, 0xd8, 0x7b, 0xb2, 0x3c, 0x44, 0x8f, 0xe0, 0x3d,
  0x4d, 0xde, 0xf4, 0xbd, 0x29, 0x6c, 0x50, 0x3e, 0x77, 0x04, 0x2d, 0xbe,
  0x46, 0xa9, 0xd4, 0x3d, 0xb2, 0xfe, 0xff, 0xff, 0x10, 0x00, 0x00, 0x00,
  0x04, 0x00, 0x00, 0x00, 0x10, 0x00, 0x00, 0x00, 0x44, 0x00, 0x00, 0x00,
  0x01, 0x00, 0x00, 0x00, 0x06, 0x00, 0x00, 0x00, 0x31, 0x00, 0x00, 0x00,
  0x73, 0x65, 0x71, 0x75, 0x65, 0x6e, 0x74, 0x69, 0x61, 0x6c, 0x2f, 0x79,
  0x5f, 0x70, 0x72, 0x65, 0x64, 0x2f, 0x42, 0x69, 0x61, 0x73, 0x41, 0x64,
  0x64, 0x2f, 0x52, 0x65, 0x61, 0x64, 0x56, 0x61, 0x72, 0x69, 0x61, 0x62,
  0x6c, 0x65, 0x4f, 0x70, 0x2f, 0x72, 0x65, 0x73, 0x6f, 0x75, 0x72, 0x63,
  0x65, 0x00, 0x00, 0x00, 0x4c, 0xfe, 0xff, 0xff, 0x6e, 0xff, 0xff, 0xff,
  0x04, 0x00, 0x00, 0x00, 0x28, 0x00, 0x00, 0x00, 0xb4, 0xf5, 0xd8, 0x3c,
  0xaf, 0x09, 0xcc, 0x3d, 0x4f, 0xfa, 0x01, 0x3e, 0x8a, 0x74, 0x97, 0xbd,
  0x87, 0xeb, 0x07, 0x3e, 0x7f, 0x5d, 0x49, 0x3c, 0xde, 0x9f, 0x18, 0x3d,
  0xbe, 0x37, 0xbe, 0xbc, 0xca, 0x3c, 0xa0, 0xbc, 0xb2, 0xa7, 0xf8, 0xbd,
  0x3e, 0xff, 0xff, 0xff, 0x10, 0x00, 0x00, 0x00, 0x03, 0x00, 0x00, 0x00,
  0x10, 0x00, 0x00, 0x00, 0x48, 0x00, 0x00, 0x00, 0x01, 0x00, 0x00, 0x00,
  0x0a, 0x00, 0x00, 0x00, 0x32, 0x00, 0x00, 0x00, 0x73, 0x65, 0x71, 0x75,
  0x65, 0x6e, 0x74, 0x69, 0x61, 0x6c, 0x2f, 0x64, 0x65, 0x6e, 0x73, 0x65,
  0x5f, 0x31, 0x2f, 0x42, 0x69, 0x61, 0x73, 0x41, 0x64, 0x64, 0x2f, 0x52,
  0x65, 0x61, 0x64, 0x56, 0x61, 0x72, 0x69, 0x61, 0x62, 0x6c, 0x65, 0x4f,
  0x70, 0x2f, 0x72, 0x65, 0x73, 0x6f, 0x75, 0x72, 0x63, 0x65, 0x00, 0x00,
  0x04, 0x00, 0x06, 0x00, 0x04, 0x00, 0x00, 0x00, 0x00, 0x00, 0x06, 0x00,
  0x08, 0x00, 0x04, 0x00, 0x06, 0x00, 0x00, 0x00, 0x04, 0x00, 0x00, 0x00,
  0x50, 0x00, 0x00, 0x00, 0x4c, 0x86, 0xef, 0x3d, 0xde, 0x38, 0x34, 0x3e,
  0x9e, 0x06, 0x94, 0x3d, 0x19, 0xa0, 0x22, 0xbd, 0x6f, 0x26, 0x3e, 0x3c,
  0x81, 0x47, 0xa7, 0x3d, 0x03, 0x6a, 0x16, 0x3c, 0x7f, 0x08, 0x43, 0x3e,
  0xba, 0x7f, 0xcc, 0xbd, 0xce, 0xee, 0x49, 0x3d, 0xe5, 0x2e, 0x9d, 0x3d,
  0x50, 0xcc, 0x30, 0xbd, 0x8f, 0x1f, 0x58, 0xbc, 0xcd, 0x0f, 0x32, 0x3c,
  0x97, 0x6b, 0x54, 0xbc, 0xf5, 0x00, 0x78, 0xbd, 0x75, 0xe7, 0x16, 0xbd,
  0x02, 0x1d, 0x14, 0x3e, 0xbe, 0xa6, 0x02, 0x3e, 0x8d, 0x02, 0xce, 0xbd,
  0x00, 0x00, 0x0e, 0x00, 0x14, 0x00, 0x04, 0x00, 0x00, 0x00, 0x08, 0x00,
  0x0c, 0x00, 0x10, 0x00, 0x0e, 0x00, 0x00, 0x00, 0x10, 0x00, 0x00, 0x00,
  0x02, 0x00, 0x00, 0x00, 0x10, 0x00, 0x00, 0x00, 0x44, 0x00, 0x00, 0x00,
  0x01, 0x00, 0x00, 0x00, 0x14, 0x00, 0x00, 0x00, 0x30, 0x00, 0x00, 0x00,
  0x73, 0x65, 0x71, 0x75, 0x65, 0x6e, 0x74, 0x69, 0x61, 0x6c, 0x2f, 0x64,
  0x65, 0x6e, 0x73, 0x65, 0x2f, 0x42, 0x69, 0x61, 0x73, 0x41, 0x64, 0x64,
  0x2f, 0x52, 0x65, 0x61, 0x64, 0x56, 0x61, 0x72, 0x69, 0x61, 0x62, 0x6c,
  0x65, 0x4f, 0x70, 0x2f, 0x72, 0x65, 0x73, 0x6f, 0x75, 0x72, 0x63, 0x65,
  0x00, 0x00, 0x00, 0x00, 0xa8, 0xff, 0xff, 0xff, 0x14, 0x00, 0x18, 0x00,
  0x04, 0x00, 0x00, 0x00, 0x08, 0x00, 0x0c, 0x00, 0x10, 0x00, 0x00, 0x00,
  0x00, 0x00, 0x14, 0x00, 0x14, 0x00, 0x00, 0x00, 0x14, 0x00, 0x00, 0x00,
  0x01, 0x00, 0x00, 0x00, 0x18, 0x00, 0x00, 0x00, 0x2c, 0x00, 0x00, 0x00,
  0x1c, 0x00, 0x00, 0x00, 0x02, 0x00, 0x00, 0x00, 0x01, 0x00, 0x00, 0x00,
  0x21, 0x00, 0x00, 0x00, 0x07, 0x00, 0x00, 0x00, 0x78, 0x5f, 0x69, 0x6e,
  0x70, 0x75, 0x74, 0x00, 0x02, 0x00, 0x00, 0x00, 0xff, 0xff, 0xff, 0xff,
  0x21, 0x00, 0x00, 0x00, 0xfc, 0xff, 0xff, 0xff, 0x04, 0x00, 0x04, 0x00,
  0x04, 0x00, 0x00, 0x00
};
unsigned int model_tflite_len = 5500;
