unsigned char model_tflite[] = {
  0x1c, 0x00, 0x00, 0x00, 0x54, 0x46, 0x4c, 0x33, 0x00, 0x00, 0x12, 0x00,
  0x1c, 0x00, 0x04, 0x00, 0x08, 0x00, 0x0c, 0x00, 0x10, 0x00, 0x14, 0x00,
  0x00, 0x00, 0x18, 0x00, 0x12, 0x00, 0x00, 0x00, 0x03, 0x00, 0x00, 0x00,
  0x14, 0x00, 0x00, 0x00, 0x1c, 0x00, 0x00, 0x00, 0xa8, 0x00, 0x00, 0x00,
  0x1c, 0x00, 0x00, 0x00, 0x50, 0x00, 0x00, 0x00, 0x02, 0x00, 0x00, 0x00,
  0x4c, 0x03, 0x00, 0x00, 0x6c, 0x01, 0x00, 0x00, 0x01, 0x00, 0x00, 0x00,
  0xb0, 0x00, 0x00, 0x00, 0x0d, 0x00, 0x00, 0x00, 0x80, 0x15, 0x00, 0x00,
  0x7c, 0x15, 0x00, 0x00, 0x5c, 0x14, 0x00, 0x00, 0xc0, 0x13, 0x00, 0x00,
  0x38, 0x13, 0x00, 0x00, 0x98, 0x08, 0x00, 0x00, 0x24, 0x05, 0x00, 0x00,
  0x90, 0x03, 0x00, 0x00, 0x60, 0x15, 0x00, 0x00, 0x5c, 0x15, 0x00, 0x00,
  0x58, 0x15, 0x00, 0x00, 0x54, 0x15, 0x00, 0x00, 0x38, 0x00, 0x00, 0x00,
  0x01, 0x00, 0x00, 0x00, 0x0c, 0x00, 0x00, 0x00, 0x08, 0x00, 0x0c, 0x00,
  0x04, 0x00, 0x08, 0x00, 0x08, 0x00, 0x00, 0x00, 0x08, 0x00, 0x00, 0x00,
  0x0c, 0x00, 0x00, 0x00, 0x13, 0x00, 0x00, 0x00, 0x6d, 0x69, 0x6e, 0x5f,
  0x72, 0x75, 0x6e, 0x74, 0x69, 0x6d, 0x65, 0x5f, 0x76, 0x65, 0x72, 0x73,
  0x69, 0x6f, 0x6e, 0x00, 0x0a, 0xec, 0xff, 0xff, 0x04, 0x00, 0x00, 0x00,
  0x10, 0x00, 0x00, 0x00, 0x31, 0x2e, 0x35, 0x2e, 0x30, 0x00, 0x00, 0x00,
  0x00, 0x00, 0x00, 0x00, 0x00, 0x00, 0x00, 0x00, 0x0f, 0x00, 0x00, 0x00,
  0x4d, 0x4c, 0x49, 0x52, 0x20, 0x43, 0x6f, 0x6e, 0x76, 0x65, 0x72, 0x74,
  0x65, 0x64, 0x2e, 0x00, 0x00, 0x00, 0x0e, 0x00, 0x18, 0x00, 0x04, 0x00,
  0x08, 0x00, 0x0c, 0x00, 0x10, 0x00, 0x14, 0x00, 0x0e, 0x00, 0x00, 0x00,
  0x14, 0x00, 0x00, 0x00, 0x40, 0x00, 0x00, 0x00, 0x44, 0x00, 0x00, 0x00,
  0x48, 0x00, 0x00, 0x00, 0x58, 0x00, 0x00, 0x00, 0x0b, 0x00, 0x00, 0x00,
  0x78, 0x14, 0x00, 0x00, 0x08, 0x14, 0x00, 0x00, 0x34, 0x13, 0x00, 0x00,
  0xa4, 0x12, 0x00, 0x00, 0x34, 0x12, 0x00, 0x00, 0x90, 0x07, 0x00, 0x00,
  0x1c, 0x04, 0x00, 0x00, 0x64, 0x02, 0x00, 0x00, 0x90, 0x01, 0x00, 0x00,
  0xf4, 0x00, 0x00, 0x00, 0x7c, 0x00, 0x00, 0x00, 0x01, 0x00, 0x00, 0x00,
  0x00, 0x00, 0x00, 0x00, 0x01, 0x00, 0x00, 0x00, 0x0a, 0x00, 0x00, 0x00,
  0x04, 0x00, 0x00, 0x00, 0xec, 0x01, 0x00, 0x00, 0x38, 0x01, 0x00, 0x00,
  0xa0, 0x00, 0x00, 0x00, 0x1c, 0x00, 0x00, 0x00, 0x04, 0x00, 0x00, 0x00,
  0x6d, 0x61, 0x69, 0x6e, 0x00, 0x00, 0x0e, 0x00, 0x18, 0x00, 0x08, 0x00,
  0x0c, 0x00, 0x10, 0x00, 0x07, 0x00, 0x14, 0x00, 0x0e, 0x00, 0x00, 0x00,
  0x00, 0x00, 0x00, 0x09, 0x01, 0x00, 0x00, 0x00, 0x1c, 0x00, 0x00, 0x00,
  0x10, 0x00, 0x00, 0x00, 0x04, 0x00, 0x00, 0x00, 0xe6, 0xec, 0xff, 0xff,
  0x00, 0x00, 0x80, 0x3f, 0x01, 0x00, 0x00, 0x00, 0x0a, 0x00, 0x00, 0x00,
  0x01, 0x00, 0x00, 0x00, 0x09, 0x00, 0x00, 0x00, 0x2e, 0xfe, 0xff, 0xff,
  0x00, 0x00, 0x00, 0x19, 0x01, 0x00, 0x00, 0x00, 0x40, 0xec, 0xff, 0xff,
  0x14, 0x00, 0x00, 0x00, 0x0b, 0x00, 0x00, 0x00, 0x18, 0x00, 0x00, 0x00,
  0x30, 0x00, 0x00, 0x00, 0x20, 0x00, 0x00, 0x00, 0x02, 0x00, 0x00, 0x00,
  0x01, 0x00, 0x00, 0x00, 0x08, 0x00, 0x00, 0x00, 0x08, 0x00, 0x00, 0x00,
  0x49, 0x64, 0x65, 0x6e, 0x74, 0x69, 0x74, 0x79, 0x00, 0x00, 0x00, 0x00,
  0x02, 0x00, 0x00, 0x00, 0xff, 0xff, 0xff, 0xff, 0x08, 0x00, 0x00, 0x00,
  0x2c, 0xec, 0xff, 0xff, 0x7a, 0xff, 0xff, 0xff, 0x00, 0x00, 0x00, 0x08,
  0x18, 0x00, 0x00, 0x00, 0x0c, 0x00, 0x00, 0x00, 0x04, 0x00, 0x00, 0x00,
  0x44, 0xec, 0xff, 0xff, 0x01, 0x00, 0x00, 0x00, 0x09, 0x00, 0x00, 0x00,
  0x03, 0x00, 0x00, 0x00, 0x08, 0x00, 0x00, 0x00, 0x06, 0x00, 0x00, 0x00,
  0x03, 0x00, 0x00, 0x00, 0xb4, 0xec, 0xff, 0xff, 0x14, 0x00, 0x00, 0x00,
  0x0a, 0x00, 0x00, 0x00, 0x18, 0x00, 0x00, 0x00, 0x40, 0x00, 0x00, 0x00,
  0x30, 0x00, 0x00, 0x00, 0x02, 0x00, 0x00, 0x00, 0x01, 0x00, 0x00, 0x00,
  0x08, 0x00, 0x00, 0x00, 0x19, 0x00, 0x00, 0x00, 0x73, 0x65, 0x71, 0x75,
  0x65, 0x6e, 0x74, 0x69, 0x61, 0x6c, 0x2f, 0x79, 0x5f, 0x70, 0x72, 0x65,
  0x64, 0x2f, 0x42, 0x69, 0x61, 0x73, 0x41, 0x64, 0x64, 0x00, 0x00, 0x00,
  0x02, 0x00, 0x00, 0x00, 0xff, 0xff, 0xff, 0xff, 0x08, 0x00, 0x00, 0x00,
  0xd8, 0xed, 0xff, 0xff, 0x00, 0x00, 0x0e, 0x00, 0x14, 0x00, 0x00, 0x00,
  0x08, 0x00, 0x0c, 0x00, 0x07, 0x00, 0x10, 0x00, 0x0e, 0x00, 0x00, 0x00,
  0x00, 0x00, 0x00, 0x08, 0x1c, 0x00, 0x00, 0x00, 0x10, 0x00, 0x00, 0x00,
  0x04, 0x00, 0x00, 0x00, 0x4e, 0xff, 0xff, 0xff, 0x00, 0x00, 0x00, 0x01,
  0x01, 0x00, 0x00, 0x00, 0x08, 0x00, 0x00, 0x00, 0x03, 0x00, 0x00, 0x00,
  0x07, 0x00, 0x00, 0x00, 0x05, 0x00, 0x00, 0x00, 0x02, 0x00, 0x00, 0x00,
  0x4c, 0xed, 0xff, 0xff, 0x14, 0x00, 0x00, 0x00, 0x09, 0x00, 0x00, 0x00,
  0x18, 0x00, 0x00, 0x00, 0x58, 0x00, 0x00, 0x00, 0x48, 0x00, 0x00, 0x00,
  0x02, 0x00, 0x00, 0x00, 0x01, 0x00, 0x00, 0x00, 0x0a, 0x00, 0x00, 0x00,
  0x32, 0x00, 0x00, 0x00, 0x73, 0x65, 0x71, 0x75, 0x65, 0x6e, 0x74, 0x69,
  0x61, 0x6c, 0x2f, 0x64, 0x65, 0x6e, 0x73, 0x65, 0x5f, 0x31, 0x2f, 0x52,
  0x65, 0x6c, 0x75, 0x3b, 0x73, 0x65, 0x71, 0x75, 0x65, 0x6e, 0x74, 0x69,
  0x61, 0x6c, 0x2f, 0x64, 0x65, 0x6e, 0x73, 0x65, 0x5f, 0x31, 0x2f, 0x42,
  0x69, 0x61, 0x73, 0x41, 0x64, 0x64, 0x00, 0x00, 0x02, 0x00, 0x00, 0x00,
  0xff, 0xff, 0xff, 0xff, 0x0a, 0x00, 0x00, 0x00, 0x88, 0xee, 0xff, 0xff,
  0x00, 0x00, 0x0e, 0x00, 0x16, 0x00, 0x00, 0x00, 0x08, 0x00, 0x0c, 0x00,
  0x07, 0x00, 0x10, 0x00, 0x0e, 0x00, 0x00, 0x00, 0x00, 0x00, 0x00, 0x08,
  0x24, 0x00, 0x00, 0x00, 0x18, 0x00, 0x00, 0x00, 0x0c, 0x00, 0x00, 0x00,
  0x00, 0x00, 0x06, 0x00, 0x08, 0x00, 0x07, 0x00, 0x06, 0x00, 0x00, 0x00,
  0x00, 0x00, 0x00, 0x01, 0x01, 0x00, 0x00, 0x00, 0x07, 0x00, 0x00, 0x00,
  0x03, 0x00, 0x00, 0x00, 0x00, 0x00, 0x00, 0x00, 0x04, 0x00, 0x00, 0x00,
  0x01, 0x00, 0x00, 0x00, 0x00, 0x00, 0x0a, 0x00, 0x0c, 0x00, 0x07, 0x00,
  0x00, 0x00, 0x08, 0x00, 0x0a, 0x00, 0x00, 0x00, 0x00, 0x00, 0x00, 0x09,
  0x01, 0x00, 0x00, 0x00, 0x1c, 0xee, 0xff, 0xff, 0x14, 0x00, 0x00, 0x00,
  0x08, 0x00, 0x00, 0x00, 0x18, 0x00, 0x00, 0x00, 0x54, 0x00, 0x00, 0x00,
  0x44, 0x00, 0x00, 0x00, 0x02, 0x00, 0x00, 0x00, 0x01, 0x00, 0x00, 0x00,
  0x14, 0x00, 0x00, 0x00, 0x2e, 0x00, 0x00, 0x00, 0x73, 0x65, 0x71, 0x75,
  0x65, 0x6e, 0x74, 0x69, 0x61, 0x6c, 0x2f, 0x64, 0x65, 0x6e, 0x73, 0x65,
  0x2f, 0x52, 0x65, 0x6c, 0x75, 0x3b, 0x73, 0x65, 0x71, 0x75, 0x65, 0x6e,
  0x74, 0x69, 0x61, 0x6c, 0x2f, 0x64, 0x65, 0x6e, 0x73, 0x65, 0x2f, 0x42,
  0x69, 0x61, 0x73, 0x41, 0x64, 0x64, 0x00, 0x00, 0x02, 0x00, 0x00, 0x00,
  0xff, 0xff, 0xff, 0xff, 0x14, 0x00, 0x00, 0x00, 0x2c, 0xee, 0xff, 0xff,
  0x4e, 0xef, 0xff, 0xff, 0x04, 0x00, 0x00, 0x00, 0x40, 0x01, 0x00, 0x00,
  0xe9, 0x6a, 0x16, 0xbe, 0x70, 0x3c, 0x0b, 0x3d, 0x86, 0x69, 0xd2, 0xbb,
  0x14, 0x1b, 0xbb, 0xbe, 0xe9, 0x23, 0xc7, 0xbe, 0x1c, 0x7a, 0xa1, 0x3e,
  0x0f, 0x2f, 0x04, 0xbf, 0x06, 0x41, 0x07, 0x3f, 0x55, 0x32, 0xd8, 0x3e,
  0x11, 0x7b, 0x57, 0x3e, 0x93, 0x5f, 0x11, 0x3f, 0xac, 0x52, 0xed, 0x3e,
  0x30, 0x85, 0x9e, 0x3e, 0x64, 0x86, 0x11, 0x3f, 0x09, 0x92, 0x10, 0x3f,
  0x42, 0xe5, 0xce, 0xbe, 0xe2, 0x8b, 0xbb, 0xbe, 0xe5, 0x2d, 0x02, 0xbf,
  0xe1, 0x9a, 0x95, 0xbe, 0x8d, 0x92, 0x39, 0xbe, 0x95, 0x0f, 0x24, 0xbf,
  0x52, 0x57, 0xc4, 0xbe, 0xd5, 0x3d, 0x98, 0xbd, 0x26, 0xa6, 0xae, 0xbd,
  0xf3, 0xf7, 0x86, 0xbe, 0x24, 0xb7, 0x46, 0x3f, 0xe5, 0x1b, 0x7a, 0xbf,
  0x3e, 0x41, 0xd5, 0x3d, 0x5a, 0xca, 0xe4, 0x3e, 0x1e, 0x90, 0x82, 0xbf,
  0x0a, 0x42, 0xfa, 0xbe, 0xfa, 0x68, 0x9d, 0x3e, 0x25, 0x9f, 0xb2, 0xbe,
  0x21, 0xe7, 0xef, 0x3d, 0x91, 0x7c, 0x7a, 0xbf, 0xd0, 0x4c, 0x86, 0xbe,
  0x19, 0x69, 0x09, 0x3f, 0xc0, 0x8b, 0x57, 0xbe, 0x89, 0xfc, 0xbb, 0xbe,
  0xaf, 0x67, 0x7e, 0x3e, 0xcc, 0x01, 0x84, 0xbe, 0x70, 0xab, 0x81, 0x3e,
  0x09, 0x84, 0x13, 0xbf, 0x3e, 0x87, 0x18, 0xbf, 0x77, 0x19, 0xe1, 0x3e,
  0x34, 0xb1, 0xcc, 0xbe, 0xde, 0xef, 0xc8, 0x3e, 0x19, 0x47, 0x91, 0xbe,
  0xec, 0x0a, 0x27, 0xbf, 0x18, 0xa6, 0x0a, 0x3f, 0x9b, 0xbd, 0x38, 0xbc,
  0x00, 0x30, 0x8a, 0x3e, 0x58, 0x55, 0xe1, 0x3b, 0xca, 0xbb, 0x2c, 0xbf,
  0x11, 0x41, 0x90, 0x3e, 0xd8, 0x68, 0x0e, 0xbf, 0x6e, 0x39, 0xa7, 0x3e,
  0xec, 0xc5, 0x1b, 0xbe, 0xa5, 0x2d, 0x1d, 0x3f, 0x6a, 0xbf, 0x14, 0xbf,
  0xb0, 0xb4, 0x19, 0xbf, 0xdc, 0x12, 0xb7, 0x3e, 0xec, 0xe7, 0x59, 0x3d,
  0x25, 0xd5, 0x3b, 0x3e, 0x29, 0xc2, 0x6e, 0xbf, 0xad, 0xd0, 0xa7, 0xbc,
  0x47, 0x87, 0x51, 0xbf, 0x71, 0x71, 0x3f, 0x3f, 0x33, 0xba, 0x7a, 0xbf,
  0xa0, 0x32, 0x10, 0x3f, 0xf9, 0xce, 0xd1, 0x3e, 0x20, 0x55, 0x83, 0xbc,
  0x5f, 0x69, 0x2a, 0x3e, 0x1b, 0x0a, 0x5f, 0xbf, 0xa0, 0xc6, 0x55, 0x3f,
  0x71, 0x64, 0xb7, 0xbe, 0x13, 0xeb, 0xcf, 0x3e, 0xa6, 0xc4, 0x10, 0x3f,
  0xcf, 0x04, 0x11, 0x3a, 0x35, 0x19, 0x01, 0xbf, 0x36, 0xf0, 0xff, 0xff,
  0x10, 0x00, 0x00, 0x00, 0x07, 0x00, 0x00, 0x00, 0x14, 0x00, 0x00, 0x00,
  0x30, 0x00, 0x00, 0x00, 0x02, 0x00, 0x00, 0x00, 0x08, 0x00, 0x00, 0x00,
  0x0a, 0x00, 0x00, 0x00, 0x18, 0x00, 0x00, 0x00, 0x73, 0x65, 0x71, 0x75,
  0x65, 0x6e, 0x74, 0x69, 0x61, 0x6c, 0x2f, 0x79, 0x5f, 0x70, 0x72, 0x65,
  0x64, 0x2f, 0x4d, 0x61, 0x74, 0x4d, 0x75, 0x6c, 0x00, 0x00, 0x00, 0x00,
  0xbc, 0xef, 0xff, 0xff, 0xde, 0xf0, 0xff, 0xff, 0x04, 0x00, 0x00, 0x00,
  0x20, 0x03, 0x00, 0x00, 0x00, 0x7a, 0xcf, 0xbe, 0x53, 0x16, 0x2e, 0x3d,
  0x2e, 0xa3, 0xb8, 0x3e, 0x09, 0xf9, 0x73, 0x3e, 0xf8, 0x20, 0x0b, 0x3f,
  0x7e, 0xc0, 0x46, 0xbe, 0xcf, 0x4e, 0xc7, 0xbd, 0x80, 0x9e, 0x99, 0x3d,
  0xaf, 0x86, 0xac, 0xbe, 0x2f, 0x13, 0xb0, 0xbe, 0x5c, 0x7f, 0x0c, 0xbe,
  0xe2, 0x26, 0x80, 0xbe, 0xf2, 0x84, 0x7d, 0x3e, 0x84, 0x65, 0xdf, 0x3e,
  0x64, 0x62, 0x9f, 0xbd, 0x60, 0xf2, 0x6a, 0xbd, 0x62, 0x4a, 0x9f, 0xbe,
  0xa3, 0xc3, 0x8a, 0x3d, 0x76, 0x3d, 0x29, 0xbe, 0xd1, 0xdc, 0x8a, 0x3d,
  0x86, 0xaa, 0x8f, 0xbe, 0xc8, 0x3c, 0x80, 0x3d, 0x5d, 0xc3, 0x5d, 0xbe,
  0xd4, 0xcc, 0x2a, 0x3e, 0xc0, 0xad, 0xd8, 0x3d, 0x58, 0x2c, 0x1c, 0x3d,
  0x08, 0x9e, 0x99, 0x3e, 0x22, 0x90, 0x41, 0xbe, 0xb0, 0x49, 0x1f, 0xbe,
  0x86, 0x5d, 0x9f, 0xbe, 0x28, 0x9a, 0x8c, 0x3d, 0x3e, 0x2f, 0xaa, 0xbe,
  0x2c, 0xbb, 0xcf, 0xbd, 0x36, 0x5d, 0x06, 0xbe, 0xeb, 0x7f, 0xa9, 0xbe,
  0x72, 0x10, 0xbe, 0xbe, 0xce, 0xc5, 0x34, 0xbe, 0x00, 0x80, 0x90, 0x3e,
  0x1c, 0x95, 0x54, 0x3e, 0xfe, 0xa2, 0xbc, 0xbe, 0x8a, 0x1e, 0xd5, 0xbe,
  0x75, 0x9e, 0xbb, 0x3d, 0xe5, 0x59, 0x55, 0xbd, 0x85, 0x65, 0xcc, 0xbe,
  0x8c, 0xe8, 0xa1, 0x3e, 0x41, 0xdf, 0x2e, 0x3e, 0x15, 0x9c, 0x1a, 0x3e,
  0x8e, 0x51, 0x42, 0xbe, 0xd5, 0x01, 0x88, 0x3e, 0x5c, 0x0c, 0xfe, 0x3e,
  0x71, 0xab, 0x2a, 0xbf, 0x6e, 0x26, 0x11, 0xbd, 0x01, 0x1f, 0x40, 0x3e,
  0xda, 0x30, 0xec, 0xbe, 0x71, 0x0d, 0x27, 0x3d, 0x12, 0xc3, 0xaa, 0x3d,
  0xed, 0x40, 0x4e, 0xbd, 0xe2, 0x36, 0xca, 0x3e, 0x19, 0xa5, 0x04, 0xbe,
  0xdc, 0xe5, 0x12, 0xbe, 0x19, 0x9b, 0x83, 0x3d, 0xcf, 0xf0, 0x0c, 0xbf,
  0xa1, 0x77, 0x37, 0x3d, 0xfe, 0x18, 0x02, 0xbf, 0xe7, 0xd4, 0x50, 0xbc,
  0x92, 0xee, 0xd3, 0x3e, 0x33, 0x1e, 0xc8, 0x3c, 0x2e, 0x32, 0xa6, 0x3e,
  0x1a, 0xc4, 0xc6, 0x3e, 0x72, 0xb6, 0xb2, 0xbe, 0xdd, 0x40, 0x29, 0x3f,
  0xb0, 0xe4, 0x74, 0x3e, 0x4e, 0xb1, 0x82, 0xbd, 0x91, 0x13, 0xab, 0xbc,
  0xba, 0xc5, 0xa9, 0xbd, 0x6c, 0x6b, 0x3a, 0x3f, 0x3a, 0xf7, 0xbc, 0xbe,
  0xee, 0x34, 0x15, 0x3e, 0xb5, 0x5e, 0x8c, 0x3e, 0x24, 0x4d, 0x5a, 0xbe,
  0x4f, 0xe1, 0xdb, 0xbd, 0x03, 0x21, 0x01, 0x3f, 0xf3, 0xc6, 0xb2, 0xbe,
  0x1c, 0x53, 0x13, 0xbd, 0x39, 0x58, 0xad, 0xbe, 0x98, 0xae, 0x55, 0x3f,
  0xfa, 0x11, 0x9b, 0xbd, 0x90, 0xa4, 0xd2, 0xbc, 0x6f, 0xb3, 0xd0, 0xbc,
  0x1d, 0x58, 0x40, 0x3f, 0xdd, 0xe4, 0xf5, 0xbc, 0xbf, 0x23, 0x20, 0xbe,
  0x6f, 0x72, 0x8f, 0xbe, 0xde, 0xd0, 0x77, 0x3e, 0x29, 0x84, 0xb5, 0x3e,
  0xc4, 0x8d, 0x80, 0xbe, 0xf0, 0xb9, 0xfe, 0x3e, 0xef, 0xfe, 0xa4, 0xbe,
  0x84, 0x1b, 0x25, 0x3f, 0x78, 0x2d, 0x21, 0x3e, 0xb6, 0x8c, 0xda, 0x3d,
  0x00, 0x87, 0x85, 0x3e, 0x81, 0xee, 0x1d, 0xbf, 0x9f, 0xdb, 0xac, 0xbd,
  0xd7, 0x3e, 0xe9, 0xbe, 0xff, 0x0c, 0xc6, 0xbd, 0x6d, 0x7b, 0x59, 0xbc,
  0xc8, 0x16, 0xc6, 0xbd, 0xe6, 0x3b, 0xc0, 0x3e, 0x0b, 0xf8, 0x14, 0xbf,
  0xc1, 0xa6, 0x30, 0xbf, 0x36, 0x7f, 0xcb, 0x3e, 0x94, 0x4e, 0x93, 0xbe,
  0xde, 0x02, 0x83, 0x3e, 0x3c, 0x2d, 0xac, 0xbe, 0x65, 0x16, 0xe5, 0x3e,
  0x05, 0xb6, 0x08, 0xbf, 0x3d, 0x94, 0x88, 0xbd, 0x84, 0x78, 0x01, 0xbf,
  0x35, 0x98, 0xa5, 0x3e, 0x4f, 0x47, 0xb3, 0x3e, 0x04, 0x56, 0xda, 0x3d,
  0xd7, 0x2b, 0xf5, 0x3e, 0xe2, 0xce, 0x3c, 0x3f, 0x50, 0x75, 0x9b, 0x3e,
  0x21, 0x7b, 0xe2, 0xbc, 0xce, 0xae, 0x3c, 0x3e, 0x18, 0x70, 0x4c, 0x3e,
  0xdf, 0x61, 0xbb, 0x3d, 0x51, 0xfe, 0x1c, 0x3f, 0x4e, 0xdb, 0x39, 0xbe,
  0xfe, 0x5e, 0x7d, 0x3e, 0xd2, 0x71, 0x88, 0xbe, 0x0b, 0x1d, 0xab, 0x3d,
  0x9e, 0x72, 0xaf, 0x3e, 0x13, 0x68, 0x72, 0xbe, 0x19, 0x51, 0x02, 0x3f,
  0xff, 0xff, 0x3b, 0xbc, 0x36, 0x3b, 0xaf, 0x3e, 0xcf, 0x21, 0xca, 0xbd,
  0xa0, 0xd1, 0xec, 0xbe, 0x4c, 0x1e, 0x49, 0x3f, 0x9f, 0x42, 0xfa, 0xbe,
  0xb6, 0x90, 0xd0, 0xbe, 0x86, 0xc3, 0x16, 0xbe, 0x36, 0x47, 0x51, 0xbe,
  0x34, 0xc3, 0xf7, 0xbd, 0x45, 0x09, 0xb2, 0xbe, 0x14, 0x1a, 0x13, 0x3f,
  0xa7, 0x79, 0xf7, 0x3e, 0x2a, 0xee, 0xe4, 0x3e, 0x44, 0xe2, 0xd1, 0x3e,
  0x69, 0x14, 0xd3, 0xbd, 0x5a, 0x66, 0x5c, 0xbd, 0x82, 0x44, 0x26, 0xbe,
  0x4d, 0x8a, 0x68, 0xbe, 0xe0, 0xad, 0x85, 0xbd, 0xa7, 0x73, 0xc5, 0x3d,
  0xa3, 0x6c, 0xbd, 0xbe, 0x4c, 0xc9, 0x74, 0x3e, 0xef, 0x49, 0x0c, 0xbf,
  0xbd, 0xb8, 0xd4, 0x3e, 0x64, 0xca, 0x7f, 0xbe, 0x96, 0x7e, 0x02, 0xbe,
  0x41, 0x35, 0x0b, 0x3f, 0x2d, 0xda, 0xa9, 0x3d, 0x25, 0x9e, 0x13, 0x3e,
  0xaf, 0x2b, 0xd3, 0xbe, 0x25, 0x9f, 0x8b, 0xbe, 0xaa, 0xd9, 0xaf, 0xbe,
  0x4c, 0xa0, 0x25, 0xbe, 0xc0, 0x54, 0xf9, 0x3e, 0xf1, 0x9b, 0x3b, 0x3f,
  0x57, 0xdb, 0x16, 0x3f, 0x6a, 0x99, 0x79, 0x3e, 0xeb, 0x6d, 0x7b, 0x3e,
  0xf8, 0xdd, 0x8e, 0xbd, 0x48, 0x8b, 0xb8, 0x3e, 0xb7, 0xf3, 0x24, 0x3e,
  0x2e, 0xdd, 0x9e, 0x3d, 0xc7, 0x6d, 0x3b, 0x3c, 0xfa, 0x46, 0x0e, 0x3f,
  0x77, 0x95, 0xba, 0x3e, 0xf0, 0x48, 0xee, 0x3e, 0x7f, 0x3c, 0xdf, 0xbd,
  0x0c, 0xe9, 0x35, 0x3f, 0xdb, 0x2b, 0x8d, 0x3e, 0x39, 0xcf, 0x72, 0xbe,
  0x08, 0xe5, 0x0f, 0x3f, 0x70, 0xac, 0x40, 0xbe, 0x50, 0x2d, 0xa3, 0x3e,
  0x5c, 0xcb, 0xbc, 0x3d, 0x05, 0x0c, 0x00, 0xbf, 0x5c, 0xab, 0x9f, 0xbe,
  0x9a, 0xa7, 0x46, 0xbf, 0x31, 0x1d, 0xa1, 0x3e, 0xbb, 0xe7, 0x29, 0x3f,
  0xbb, 0x66, 0xb2, 0x3e, 0xb0, 0xf4, 0x9c, 0xbe, 0x21, 0xc2, 0xd1, 0x3e,
  0xa6, 0xf3, 0xff, 0xff, 0x10, 0x00, 0x00, 0x00, 0x06, 0x00, 0x00, 0x00,
  0x14, 0x00, 0x00, 0x00, 0x30, 0x00, 0x00, 0x00, 0x02, 0x00, 0x00, 0x00,
  0x0a, 0x00, 0x00, 0x00, 0x14, 0x00, 0x00, 0x00, 0x19, 0x00, 0x00, 0x00,
  0x73, 0x65, 0x71, 0x75, 0x65, 0x6e, 0x74, 0x69, 0x61, 0x6c, 0x2f, 0x64,
  0x65, 0x6e, 0x73, 0x65, 0x5f, 0x31, 0x2f, 0x4d, 0x61, 0x74, 0x4d, 0x75,
  0x6c, 0x00, 0x00, 0x00, 0x2c, 0xf3, 0xff, 0xff, 0x4e, 0xf4, 0xff, 0xff,
  0x04, 0x00, 0x00, 0x00, 0x50, 0x0a, 0x00, 0x00, 0xeb, 0x77, 0xa3, 0xbe,
  0x2a, 0x0f, 0x85, 0xbe, 0x3c, 0x5c, 0x39, 0xbe, 0xf0, 0xa0, 0x35, 0x3e,
  0xfa, 0x38, 0xa0, 0xbd, 0x89, 0x71, 0x92, 0xbd, 0x37, 0xd2, 0xcf, 0xbe,
  0x35, 0xae, 0xd1, 0xbd, 0x09, 0x0b, 0xa3, 0xbe, 0x06, 0x50, 0x82, 0xbe,
  0xc0, 0x45, 0x7e, 0x3e, 0x4d, 0xf9, 0x5a, 0xbc, 0x1a, 0xa5, 0x72, 0xbe,
  0x3f, 0x22, 0x0d, 0x3f, 0x44, 0xda, 0x70, 0x3e, 0x9e, 0x82, 0xab, 0x3e,
  0x26, 0xc2, 0x84, 0x3e, 0xc9, 0xef, 0xae, 0xbe, 0x72, 0x8d, 0x00, 0x3f,
  0x22, 0x83, 0x47, 0x3e, 0x30, 0x2a, 0xb1, 0x3e, 0xb3, 0x55, 0x06, 0xbf,
  0x43, 0x1c, 0x96, 0x3e, 0x60, 0xd2, 0xd3, 0xbc, 0x1e, 0xd1, 0x67, 0xbe,
  0xe1, 0xdf, 0xd3, 0xbd, 0x5b, 0xbd, 0x92, 0xbe, 0x83, 0x51, 0x8b, 0x3e,
  0x46, 0x6a, 0xbf, 0x3d, 0x12, 0x37, 0x72, 0xbd, 0xa1, 0xfd, 0xf0, 0xbd,
  0x37, 0x07, 0x99, 0xbe, 0xc8, 0xc0, 0x84, 0x3d, 0x8f, 0xcd, 0xbc, 0x3d,
  0x17, 0x37, 0x71, 0x3e, 0x97, 0x9d, 0x01, 0xbd, 0xb7, 0xf5, 0x1b, 0xbe,
  0xdb, 0xc9, 0x5e, 0x3e, 0xcc, 0x79, 0xc1, 0x3e, 0x6b, 0xd0, 0x73, 0x3e,
  0x89, 0xff, 0xc7, 0x3e, 0x2f, 0x66, 0xbe, 0xbe, 0x3b, 0x82, 0x4b, 0x3e,
  0x86, 0xda, 0x94, 0x3e, 0x7b, 0x4c, 0xf9, 0xbd, 0xe5, 0x89, 0x05, 0xbe,
  0x0a, 0x60, 0xaa, 0xbe, 0xeb, 0xe0, 0x57, 0xbe, 0x0d, 0x57, 0x40, 0xbe,
  0x12, 0xce, 0x95, 0x3d, 0xdf, 0x13, 0x96, 0xbd, 0x2e, 0xc2, 0xdd, 0x3d,
  0x7a, 0x9a, 0x0c, 0x3e, 0xde, 0x7b, 0x45, 0x3d, 0xd5, 0x5d, 0x90, 0xbe,
  0x32, 0x51, 0x0e, 0x3d, 0x26, 0xfd, 0x2b, 0xbe, 0x23, 0xf4, 0xe6, 0x3e,
  0xde, 0x03, 0x56, 0xbe, 0x08, 0xaf, 0x13, 0x3e, 0xa7, 0x71, 0xd2, 0x3d,
  0xb5, 0xc6, 0xa3, 0xbe, 0xff, 0x01, 0x89, 0x3e, 0x55, 0xd2, 0x09, 0x3f,
  0xc1, 0x58, 0x20, 0x3f, 0x14, 0x21, 0x0f, 0xbe, 0xd2, 0xdb, 0x1e, 0xbb,
  0x8a, 0xd9, 0x97, 0xbe, 0xb7, 0x3f, 0xc3, 0xbe, 0x23, 0xab, 0x7c, 0x3e,
  0x18, 0xa5, 0x49, 0xbd, 0xf1, 0x85, 0x4a, 0xbd, 0xab, 0x0d, 0xf0, 0xbe,
  0x4c, 0x9e, 0x9f, 0xbb, 0x12, 0x75, 0x08, 0xbf, 0x99, 0xeb, 0x91, 0xbe,
  0xfb, 0x98, 0xde, 0xbe, 0x18, 0x12, 0x52, 0x3d, 0x56, 0x72, 0xb5, 0xbe,
  0x50, 0x02, 0x84, 0x3d, 0x71, 0x8e, 0x2e, 0x3e, 0x24, 0xe0, 0xed, 0xbd,
  0xbc, 0x49, 0x52, 0xbc, 0x1b, 0x0a, 0x81, 0xbe, 0xd2, 0xd0, 0x2a, 0x3f,
  0x48, 0x63, 0x85, 0xbe, 0x8f, 0xdb, 0x0e, 0xbe, 0xe0, 0xc6, 0xff, 0xbe,
  0x85, 0x02, 0x36, 0xbe, 0x0b, 0x87, 0x09, 0x3e, 0x59, 0xb8, 0x31, 0xbe,
  0x01, 0xb1, 0xd7, 0x3e, 0xa6, 0xde, 0x61, 0x3e, 0xc4, 0x19, 0xcd, 0xbd,
  0xcb, 0x69, 0x05, 0x3e, 0x11, 0xed, 0xe9, 0x3d, 0xcb, 0xe3, 0x6b, 0xbd,
  0xdc, 0xce, 0x23, 0x3d, 0x0f, 0xf8, 0x11, 0xbf, 0x60, 0x98, 0xc1, 0xbe,
  0xa6, 0x64, 0xdb, 0xbd, 0xa0, 0x0f, 0x9a, 0xbe, 0xf7, 0xbd, 0xd1, 0x3d,
  0xf5, 0x51, 0x8c, 0x3e, 0xe5, 0x00, 0x0d, 0xbe, 0xde, 0x6f, 0xce, 0xbe,
  0x1f, 0x62, 0xf4, 0xbb, 0x33, 0x7d, 0x02, 0xbe, 0xe4, 0x57, 0x0d, 0x3e,
  0x17, 0xd9, 0xd8, 0x3d, 0xee, 0x1c, 0x5d, 0xbe, 0xfc, 0x76, 0xef, 0x3c,
  0xcb, 0x22, 0x79, 0x3e, 0xe6, 0xe1, 0xea, 0x3d, 0x97, 0x4d, 0x76, 0xbd,
  0xd6, 0xf4, 0x2f, 0xbe, 0x50, 0x65, 0xfc, 0xbd, 0x2c, 0x78, 0xf8, 0x3e,
  0xa2, 0x16, 0xb5, 0x3e, 0xcf, 0xd7, 0x16, 0xbf, 0x42, 0x11, 0x13, 0xbf,
  0xbf, 0x7f, 0x5b, 0x3e, 0x17, 0x7b, 0x67, 0xbc, 0xb1, 0x71, 0x17, 0xbe,
  0xb1, 0x58, 0xab, 0x3e, 0x72, 0x43, 0x1c, 0x3e, 0x5f, 0xb6, 0x2c, 0xbd,
  0xea, 0x1b, 0x00, 0x3f, 0x76, 0x39, 0x3d, 0xbc, 0x35, 0xcd, 0x29, 0x3d,
  0x95, 0x62, 0x15, 0x3e, 0x97, 0xb6, 0xd5, 0xbd, 0xd2, 0xed, 0x26, 0x3e,
  0xa9, 0xab, 0x14, 0x3e, 0xc2, 0xd2, 0x8c, 0xbd, 0x7f, 0x40, 0x14, 0x3e,
  0x60, 0xc5, 0x8c, 0x3e, 0x17, 0xc5, 0xb3, 0x3e, 0x89, 0x34, 0x19, 0xbe,
  0x7d, 0xa4, 0x83, 0xbe, 0x6c, 0x9c, 0x5f, 0x3e, 0x27, 0x96, 0x4e, 0x3e,
  0x1e, 0x7a, 0xb6, 0x3e, 0x02, 0xde, 0xda, 0xbd, 0x25, 0x58, 0x29, 0xbd,
  0x06, 0x3e, 0x8a, 0xbe, 0xa3, 0xed, 0x58, 0xbe, 0xc9, 0x7d, 0x59, 0x3c,
  0xcc, 0xe8, 0xf4, 0xbd, 0xfa, 0x9f, 0x99, 0xbd, 0x07, 0xc8, 0xc6, 0xbb,
  0xc7, 0xb9, 0x6f, 0xbe, 0xbf, 0x18, 0x02, 0xbe, 0x94, 0xce, 0x4d, 0xbe,
  0x33, 0xd8, 0x3e, 0xbe, 0x1c, 0xf7, 0x9b, 0x3c, 0x94, 0xa7, 0xc4, 0xbd,
  0xe0, 0xf6, 0xb1, 0x3d, 0x3f, 0xc8, 0xb3, 0x3e, 0x8e, 0x76, 0x65, 0x3e,
  0x25, 0x60, 0xa5, 0x3e, 0xba, 0x46, 0x85, 0xbd, 0x08, 0x10, 0xc0, 0xbd,
  0xaf, 0xf9, 0x54, 0xbe, 0x61, 0xd3, 0x7d, 0xbd, 0x2d, 0xba, 0x6f, 0x3e,
  0x2d, 0xda, 0x4e, 0xbe, 0xa7, 0x44, 0x19, 0xbe, 0xf1, 0x56, 0x4e, 0xbe,
  0xa3, 0xae, 0x09, 0xbd, 0x54, 0x0f, 0x72, 0x3c, 0x85, 0xd8, 0xd2, 0xbd,
  0xae, 0x26, 0x77, 0x3e, 0x1d, 0xc2, 0x38, 0xbe, 0xf4, 0x53, 0xb8, 0xbe,
  0xad, 0x48, 0x5b, 0xbe, 0xf9, 0xd9, 0xdf, 0xbd, 0x2c, 0x20, 0x23, 0x3f,
  0x1e, 0xcf, 0x5f, 0xbe, 0x3a, 0x26, 0x8c, 0x3e, 0x2b, 0xe4, 0x92, 0x3d,
  0x4f, 0x67, 0x0d, 0xbe, 0x86, 0x70, 0xe5, 0x3d, 0xce, 0x7a, 0x98, 0x3e,
  0x82, 0xf0, 0x5a, 0x3e, 0x1a, 0xd1, 0x7c, 0xbe, 0xb4, 0xa1, 0x9f, 0xbe,
  0x3a, 0x66, 0xd5, 0xbd, 0xa7, 0xe4, 0x2f, 0xbe, 0x8b, 0x28, 0xbe, 0xbe,
  0x7a, 0x25, 0xc6, 0x3d, 0x98, 0x80, 0x03, 0xbe, 0x08, 0x7d, 0x64, 0xbe,
  0x17, 0xcc, 0x1d, 0xbd, 0x8c, 0x3b, 0x60, 0x3d, 0xb5, 0x23, 0xc8, 0x3d,
  0xcd, 0xaf, 0x51, 0x3e, 0xf0, 0xa4, 0x24, 0xbd, 0x66, 0x9d, 0x95, 0xbe,
  0x62, 0x0e, 0x87, 0x3e, 0x40, 0xc6, 0xa0, 0xbd, 0xa0, 0x42, 0x0e, 0xbe,
  0x96, 0xe1, 0x2f, 0xbe, 0x8c, 0x20, 0x9f, 0x3d, 0xc3, 0x47, 0xce, 0x3d,
  0xb4, 0xb4, 0xb8, 0xbd, 0xed, 0x41, 0x36, 0xbe, 0x9a, 0xdc, 0x11, 0x3e,
  0xfa, 0x28, 0x9f, 0xbe, 0xe2, 0x4e, 0x96, 0xbe, 0xc4, 0xbb, 0xb6, 0xbe,
  0x58, 0x20, 0x8e, 0xbe, 0x8f, 0x0b, 0x74, 0x3e, 0x48, 0x97, 0x11, 0x3d,
  0x2e, 0x64, 0xf7, 0xbd, 0xf3, 0x75, 0xc8, 0x3d, 0x9b, 0x0c, 0x81, 0x3d,
  0x39, 0x0e, 0x1e, 0xbe, 0x0f, 0x34, 0x03, 0x3d, 0xfd, 0x16, 0xb7, 0xbd,
  0xfa, 0xa2, 0x75, 0x3e, 0x9a, 0x01, 0xa3, 0xbe, 0x43, 0x1a, 0x96, 0x3c,
  0x5f, 0x4c, 0x1c, 0xbc, 0x76, 0x8c, 0x75, 0xbe, 0xb3, 0x1a, 0xe9, 0xbc,
  0xab, 0x5a, 0x8d, 0x3b, 0xa8, 0x2f, 0xe5, 0xbd, 0x1e, 0x96, 0xb2, 0x3d,
  0xf7, 0x98, 0x0f, 0xbe, 0x1a, 0x27, 0x96, 0xbe, 0x44, 0x8c, 0xe2, 0xbd,
  0xc7, 0xb8, 0xa5, 0x3e, 0x58, 0xda, 0x65, 0xbe, 0xc8, 0x75, 0x9e, 0xbd,
  0x73, 0x1c, 0x8c, 0xbe, 0xb7, 0xfb, 0x9c, 0x3e, 0x88, 0x8e, 0x46, 0x3d,
  0xe1, 0x3b, 0x9e, 0xbe, 0x3f, 0xef, 0x87, 0x3e, 0x00, 0xb8, 0x84, 0xbe,
  0x9e, 0x6b, 0x56, 0x3e, 0xbf, 0xd2, 0x37, 0xbe, 0x69, 0x93, 0x75, 0xbe,
  0x8c, 0x1f, 0x15, 0xbe, 0x1f, 0xc4, 0x3c, 0xbe, 0x18, 0x19, 0x0d, 0xbd,
  0xc0, 0x55, 0xcd, 0xbb, 0x7e, 0x6a, 0x86, 0xbe, 0xf0, 0x20, 0x9f, 0x3c,
  0x12, 0x31, 0xc0, 0xbd, 0x74, 0x36, 0xd3, 0xbd, 0xf7, 0x11, 0x87, 0xbe,
  0xb4, 0xbd, 0xa3, 0xbe, 0xf4, 0x0c, 0x87, 0xbd, 0xf8, 0x71, 0x58, 0xbd,
  0x12, 0xe5, 0x93, 0xbe, 0x4e, 0xcc, 0x6c, 0x3e, 0xd8, 0x5d, 0xd0, 0x3d,
  0xb4, 0x1d, 0xf8, 0x3d, 0xce, 0x12, 0x6d, 0x3e, 0xd4, 0x73, 0x96, 0xbe,
  0x7f, 0x95, 0x8e, 0x3e, 0x48, 0x0d, 0x96, 0xbe, 0xc3, 0xff, 0x31, 0xbd,
  0x0f, 0x59, 0xb4, 0x3e, 0x62, 0x77, 0xfc, 0x3b, 0x95, 0x0d, 0xbd, 0xbe,
  0x1c, 0x72, 0x7d, 0x3e, 0x50, 0x44, 0xc1, 0x3d, 0xbe, 0xaf, 0x12, 0xbe,
  0x62, 0xb1, 0xf8, 0xbd, 0x10, 0xfb, 0xe9, 0xbc, 0x53, 0x1d, 0x8e, 0xbe,
  0xfc, 0xdc, 0xf5, 0xbe, 0x69, 0x42, 0xfa, 0x3e, 0x56, 0x2c, 0x2c, 0x3e,
  0x3d, 0x4a, 0x34, 0x3c, 0x23, 0x80, 0x40, 0xbe, 0xea, 0x8d, 0x2f, 0xbe,
  0x62, 0x03, 0x23, 0x3c, 0x66, 0xbf, 0x78, 0x3b, 0x06, 0x67, 0x31, 0x3e,
  0xc5, 0xbb, 0xb5, 0x3d, 0x97, 0x11, 0x47, 0x3e, 0x3f, 0xef, 0x0a, 0x3e,
  0x7d, 0x8c, 0xb9, 0xbd, 0xe0, 0x51, 0x50, 0xbd, 0xc0, 0x63, 0x15, 0xbe,
  0xcd, 0x47, 0x96, 0x3e, 0xb0, 0x83, 0x7e, 0xbe, 0x3a, 0x8c, 0x4b, 0x3d,
  0x7a, 0xc4, 0xdc, 0x3e, 0x92, 0xef, 0x11, 0x3c, 0xf0, 0x09, 0x0b, 0xbe,
  0xeb, 0x4e, 0xf4, 0x3d, 0x71, 0x9b, 0x86, 0xbe, 0xb5, 0xbf, 0xd1, 0x3d,
  0x95, 0x36, 0x7d, 0x3e, 0xb7, 0x5d, 0xa1, 0x3d, 0xf2, 0x6e, 0x80, 0xbc,
  0x72, 0x14, 0x51, 0xbe, 0x4c, 0x9e, 0xd9, 0xbd, 0xbd, 0x15, 0x69, 0xbc,
  0xfe, 0x69, 0x80, 0x3c, 0x0e, 0x08, 0x28, 0xbd, 0x6e, 0x18, 0xb9, 0xbe,
  0xe4, 0xfa, 0xb8, 0x3e, 0x2e, 0x05, 0x27, 0xbe, 0x15, 0x44, 0x98, 0x3c,
  0x65, 0x2c, 0x88, 0x3c, 0x07, 0x67, 0x36, 0xbd, 0xc3, 0x86, 0x8c, 0xbe,
  0x0f, 0x21, 0x44, 0x3c, 0xb3, 0x2b, 0x1e, 0x3e, 0x39, 0x49, 0xe0, 0x3e,
  0x61, 0x30, 0x22, 0xbf, 0x5a, 0x86, 0x06, 0xbe, 0x25, 0xb3, 0xcf, 0x3d,
  0x58, 0x1d, 0x86, 0x3e, 0x02, 0x4e, 0xa1, 0x3e, 0x0e, 0x23, 0x0c, 0x3f,
  0x01, 0x45, 0x42, 0xbe, 0x38, 0xa0, 0x18, 0x3e, 0x63, 0x6e, 0x83, 0xbe,
  0x8b, 0xa1, 0x5e, 0x3e, 0xe3, 0x68, 0xcd, 0x3e, 0x8c, 0xa3, 0xd7, 0x3c,
  0xb4, 0x19, 0x8e, 0x3e, 0x8c, 0x72, 0x51, 0x3e, 0x11, 0xf0, 0x8d, 0xbe,
  0x47, 0x97, 0x48, 0xbe, 0x3e, 0x30, 0xba, 0xbe, 0x46, 0x3a, 0x5f, 0xbe,
  0x58, 0x00, 0xce, 0x3d, 0x81, 0x45, 0xea, 0x3d, 0xa6, 0xe0, 0x56, 0x3e,
  0x6f, 0x99, 0x0e, 0x3e, 0xda, 0x67, 0x71, 0xbe, 0x20, 0x0c, 0x21, 0xbe,
  0x2b, 0x4a, 0xaf, 0xbe, 0xae, 0xba, 0x06, 0x3f, 0xec, 0xf7, 0x9a, 0x3e,
  0x80, 0x3e, 0xd1, 0x3e, 0x37, 0x22, 0x89, 0x3b, 0x9b, 0xaa, 0xde, 0xba,
  0x3e, 0xe4, 0xd4, 0x3d, 0x66, 0xe5, 0xd8, 0x3e, 0x52, 0x0f, 0x1a, 0x3e,
  0xa1, 0x38, 0xe9, 0xbc, 0xbe, 0x6f, 0xb0, 0xbe, 0x85, 0x35, 0xde, 0x3e,
  0xe7, 0x34, 0xb0, 0x3e, 0x30, 0xcc, 0x6d, 0xbe, 0x4b, 0x0f, 0x6d, 0xbd,
  0x65, 0x0f, 0x1e, 0x3e, 0x04, 0xf7, 0x1c, 0xbe, 0x6b, 0x9f, 0xca, 0x3e,
  0xe1, 0x27, 0x79, 0x3e, 0xc4, 0x1b, 0x0b, 0xbe, 0xb8, 0x73, 0xa8, 0x3e,
  0xc2, 0xb9, 0xed, 0x3d, 0xfd, 0x63, 0x99, 0xbe, 0x10, 0xea, 0xb4, 0x3e,
  0x76, 0x62, 0xa7, 0x3e, 0x94, 0xd0, 0xd9, 0x3d, 0x2c, 0x1f, 0x67, 0xbd,
  0x9e, 0x80, 0x6b, 0x3e, 0x95, 0xb5, 0x9f, 0x3e, 0xf9, 0x0d, 0xc7, 0x3d,
  0x03, 0x99, 0x2b, 0x3e, 0x4b, 0x50, 0xdb, 0x3e, 0x84, 0xc4, 0x16, 0x3f,
  0x2f, 0x85, 0x9f, 0xbd, 0xec, 0xa3, 0x8a, 0x3e, 0x6b, 0x5f, 0x20, 0x3d,
  0xe7, 0xa4, 0x72, 0xbe, 0xd3, 0xfd, 0xd1, 0xbc, 0x08, 0x7e, 0x24, 0x3e,
  0x9b, 0x1a, 0x4b, 0x3d, 0x8e, 0x7d, 0xac, 0x3e, 0xff, 0x55, 0x0b, 0x3e,
  0xf7, 0x63, 0x56, 0x3e, 0x4a, 0xf3, 0xb2, 0x3e, 0x01, 0xca, 0x33, 0xbe,
  0xfb, 0x46, 0x8d, 0xbd, 0xd7, 0x58, 0x66, 0x3e, 0xe9, 0x2f, 0x3a, 0x3e,
  0x5d, 0x62, 0x20, 0xbe, 0xee, 0xde, 0x3b, 0xbd, 0xdd, 0xc4, 0x48, 0x3e,
  0x67, 0x2f, 0x5e, 0xbe, 0x1f, 0x93, 0xca, 0x3d, 0x2a, 0x8c, 0xce, 0xbe,
  0x8e, 0x05, 0xbb, 0x3d, 0x0a, 0x03, 0x80, 0xbe, 0x43, 0x77, 0xa4, 0x3e,
  0xf6, 0xe9, 0x33, 0x3d, 0xab, 0x62, 0x85, 0x3e, 0x16, 0xe2, 0xd6, 0xbd,
  0x5a, 0xed, 0x93, 0x3e, 0x90, 0x57, 0x4d, 0x3d, 0xfd, 0x3a, 0x6f, 0x3e,
  0x2a, 0x10, 0x7d, 0xbd, 0x9f, 0xb5, 0x64, 0x3e, 0xc6, 0xa1, 0x0c, 0x3f,
  0x25, 0xd4, 0xe6, 0xbd, 0xe9, 0xdb, 0x68, 0xbe, 0x1f, 0xbf, 0x95, 0xbe,
  0x54, 0x34, 0x73, 0x3e, 0x09, 0x66, 0x9c, 0x3e, 0x47, 0x51, 0x87, 0xbe,
  0xe1, 0x44, 0xcc, 0x3e, 0x4d, 0xb6, 0xab, 0x3d, 0x38, 0xf1, 0xbf, 0xbe,
  0xa9, 0xd8, 0xf3, 0xbd, 0xcc, 0xf6, 0x5d, 0xbe, 0x43, 0x19, 0x5a, 0xbe,
  0x8f, 0x88, 0x8b, 0x3e, 0xd2, 0x24, 0x4e, 0xbd, 0x04, 0x28, 0xa6, 0xbe,
  0x7a, 0xcb, 0x47, 0xbd, 0x26, 0x45, 0x80, 0xbe, 0x7d, 0xb5, 0xe9, 0x3d,
  0xa6, 0x12, 0x99, 0x3e, 0xb1, 0xb7, 0x5d, 0xbe, 0x8f, 0x5e, 0xfc, 0x3d,
  0x4a, 0x55, 0xfa, 0xbd, 0xc0, 0xb0, 0xc0, 0xbd, 0x1b, 0x6f, 0xb0, 0x3e,
  0x8c, 0x25, 0x3e, 0xbb, 0x73, 0x5a, 0x10, 0x3e, 0xe4, 0xb0, 0x5f, 0x3e,
  0xbc, 0x4c, 0x94, 0x3e, 0x33, 0x79, 0x49, 0xbd, 0x53, 0x07, 0x66, 0x3e,
  0x6a, 0xee, 0xd2, 0x3c, 0x34, 0xbb, 0xda, 0x3e, 0x32, 0xe0, 0x10, 0x3f,
  0xbd, 0xc3, 0x16, 0x3f, 0x4f, 0x83, 0x1c, 0x3e, 0x0f, 0x32, 0xb0, 0x3d,
  0x58, 0xd4, 0x8b, 0xbe, 0x48, 0x78, 0x7b, 0x3d, 0xa9, 0x0d, 0x94, 0xbc,
  0xd7, 0x62, 0x28, 0xbe, 0x4b, 0x8f, 0x93, 0xbd, 0xa8, 0x78, 0x93, 0xbd,
  0x3b, 0xb1, 0xdf, 0x3d, 0x0c, 0x7b, 0xb0, 0xbe, 0xff, 0xb2, 0xb6, 0xbe,
  0x41, 0x2f, 0x7b, 0x3e, 0x54, 0x13, 0x00, 0xbe, 0xa2, 0x44, 0x5d, 0xbe,
  0x68, 0x02, 0xb2, 0x3e, 0x3a, 0xb7, 0x51, 0x3e, 0xf4, 0x15, 0x38, 0x3c,
  0x30, 0xed, 0x50, 0x3e, 0x39, 0xe6, 0x78, 0xbe, 0x00, 0xd9, 0xb6, 0xbe,
  0xec, 0x31, 0xc6, 0x3e, 0xa9, 0xbe, 0xa6, 0x3e, 0xe9, 0x71, 0x40, 0x3d,
  0x35, 0x57, 0xb2, 0xbe, 0xe8, 0x4a, 0x16, 0x3f, 0xfe, 0xb1, 0x80, 0x3d,
  0xd1, 0xbd, 0x51, 0x3e, 0x48, 0xd6, 0x7b, 0xbd, 0x04, 0x65, 0x9c, 0x3e,
  0xd5, 0x03, 0xca, 0x3e, 0x9a, 0x58, 0x97, 0x3e, 0xd0, 0xb3, 0x79, 0xbd,
  0xb5, 0xf7, 0x41, 0xbc, 0x81, 0xbb, 0xc8, 0xbd, 0xd1, 0x02, 0x61, 0xbe,
  0x81, 0xe7, 0x29, 0x3e, 0x73, 0x3d, 0x8b, 0xbd, 0x0b, 0x50, 0x17, 0xbe,
  0x6f, 0x7a, 0x98, 0xbc, 0x34, 0x1c, 0xc1, 0xbe, 0x2a, 0xc2, 0xec, 0x3d,
  0xa7, 0xb2, 0x02, 0xbe, 0x9d, 0x10, 0xb5, 0xbd, 0xa3, 0x7b, 0x90, 0x3e,
  0x14, 0xc7, 0x67, 0x3d, 0x7c, 0x81, 0x3a, 0x3e, 0xea, 0x98, 0xd4, 0x3e,
  0xda, 0xe3, 0x44, 0x3e, 0x7d, 0x07, 0xdb, 0x3c, 0x6d, 0x80, 0xed, 0x3d,
  0xf7, 0x59, 0x64, 0xbd, 0xc3, 0x35, 0xbd, 0x3d, 0x29, 0xdd, 0x4d, 0x3e,
  0xc0, 0xb4, 0x20, 0x3e, 0x44, 0x4e, 0x06, 0x3f, 0x88, 0x64, 0x91, 0xbd,
  0xa5, 0x52, 0x97, 0x3e, 0x27, 0xaa, 0xac, 0x3d, 0xdc, 0x79, 0xd0, 0x3e,
  0x9a, 0xab, 0x0a, 0xbe, 0x7c, 0xea, 0x0a, 0x3f, 0x47, 0x84, 0x07, 0xbe,
  0x02, 0x10, 0xc1, 0x3b, 0x72, 0xa0, 0x7b, 0x3e, 0xc9, 0xcb, 0x1e, 0x3f,
  0xc6, 0xf5, 0xbb, 0xbe, 0x68, 0x51, 0xca, 0x3e, 0x36, 0xd0, 0xd0, 0x3c,
  0x6c, 0xbe, 0xfa, 0x3d, 0xc3, 0x38, 0x1c, 0x3f, 0x9e, 0x82, 0x8e, 0x3d,
  0xcc, 0x9e, 0x29, 0x3e, 0x25, 0x8c, 0xfa, 0x3e, 0xca, 0x55, 0x78, 0x3e,
  0x2d, 0xba, 0x2e, 0x3f, 0x2e, 0x40, 0xe4, 0x3e, 0xe7, 0xcc, 0xda, 0xbe,
  0x57, 0xd2, 0x10, 0xbe, 0x1f, 0xf9, 0x03, 0xbd, 0x28, 0x00, 0xd6, 0xbe,
  0x73, 0xa1, 0x10, 0x3d, 0x46, 0x12, 0x09, 0xbd, 0xe8, 0x55, 0xa8, 0x3d,
  0x58, 0x33, 0x23, 0x3d, 0x59, 0xe8, 0x2d, 0xbe, 0x5c, 0xb1, 0x12, 0xbf,
  0xc7, 0xe4, 0x09, 0xbf, 0xb8, 0x0a, 0x03, 0xbf, 0xc3, 0x8c, 0x09, 0xbe,
  0xec, 0x08, 0xdb, 0x3e, 0x80, 0x45, 0x99, 0x3e, 0xf2, 0x97, 0xaf, 0x3c,
  0xaa, 0x25, 0x69, 0x3e, 0x88, 0x6b, 0x04, 0x3e, 0x26, 0x53, 0xab, 0x3d,
  0x43, 0xb7, 0x9e, 0xbd, 0xf8, 0x5c, 0x8f, 0x3d, 0xe2, 0xc8, 0x46, 0x3e,
  0xed, 0x1e, 0x80, 0x3e, 0xa6, 0x1d, 0xb1, 0xbe, 0x5e, 0x00, 0x0c, 0xbd,
  0x94, 0x80, 0xcd, 0xbe, 0xd6, 0x5b, 0xf3, 0xbd, 0x9e, 0x94, 0x91, 0x3d,
  0x78, 0xf6, 0x02, 0x3e, 0xf4, 0x00, 0xe4, 0xbc, 0x00, 0xc2, 0x00, 0xbe,
  0x4d, 0xb5, 0x62, 0xbe, 0x92, 0x70, 0xc1, 0xbe, 0x8d, 0xa0, 0xa6, 0xbe,
  0xbc, 0x70, 0x3d, 0xbe, 0x8d, 0x66, 0x1a, 0x3e, 0x5e, 0x77, 0x3a, 0x3e,
  0xf8, 0x99, 0x1d, 0x3c, 0xaf, 0xf9, 0x6d, 0x3c, 0x36, 0xc9, 0x1d, 0x3e,
  0x6a, 0x43, 0xf8, 0x3e, 0x62, 0x75, 0xde, 0x3e, 0xe3, 0x8c, 0x20, 0x3e,
  0x98, 0x4d, 0xf6, 0xbd, 0xb3, 0x33, 0x16, 0xbe, 0x71, 0x5e, 0x42, 0xbe,
  0x34, 0x86, 0x67, 0xbd, 0x6b, 0x16, 0xb5, 0xbe, 0xa8, 0x9d, 0xa9, 0xbe,
  0x5e, 0xc2, 0x80, 0x3e, 0xd4, 0x7a, 0x38, 0xbe, 0xb5, 0x39, 0xd6, 0x3c,
  0x6a, 0x79, 0x5a, 0x3e, 0x4a, 0x13, 0x5e, 0xbe, 0x1c, 0x33, 0x7b, 0x3b,
  0x85, 0x13, 0xd3, 0x39, 0x75, 0x71, 0xbd, 0x3d, 0x4e, 0xb1, 0xf6, 0x3a,
  0xed, 0x83, 0x0f, 0xbe, 0xc4, 0x25, 0x01, 0xbe, 0xbf, 0xf1, 0x1d, 0xbe,
  0xf9, 0xb4, 0x1b, 0xbd, 0x73, 0x1c, 0xe9, 0xbd, 0x82, 0x12, 0x47, 0xbe,
  0x56, 0x2b, 0x73, 0x3e, 0xed, 0x85, 0xae, 0xbe, 0x0f, 0x96, 0x1f, 0xbe,
  0x70, 0x53, 0xee, 0x3d, 0x7a, 0xea, 0xae, 0xbe, 0x31, 0x9f, 0x65, 0x3e,
  0x7e, 0xa6, 0xb8, 0xbd, 0x85, 0xde, 0xa5, 0xbe, 0x6e, 0x0c, 0x6c, 0x3e,
  0xdb, 0x5c, 0x05, 0x3e, 0xbe, 0x06, 0x13, 0x3e, 0x9f, 0x4a, 0x18, 0x3e,
  0x30, 0xf1, 0x69, 0x3c, 0xe5, 0x6b, 0x91, 0xbc, 0x6a, 0x05, 0xe9, 0xbd,
  0xbe, 0x5e, 0x99, 0xbd, 0x0d, 0x3d, 0xd3, 0x3e, 0xa9, 0xce, 0x8b, 0x3e,
  0x71, 0x19, 0x0e, 0x3e, 0x3b, 0x1d, 0x5b, 0x3d, 0x49, 0xee, 0x8d, 0xbd,
  0x3f, 0x8b, 0x97, 0xbe, 0x8c, 0x6e, 0xe5, 0x3d, 0xdc, 0xa0, 0xf5, 0xbb,
  0x33, 0x42, 0x36, 0xbe, 0xc6, 0x67, 0xd3, 0xbe, 0xf2, 0xa5, 0xcc, 0x3e,
  0x35, 0xcf, 0x5b, 0xbe, 0x50, 0x66, 0xf3, 0xbd, 0x13, 0x2e, 0x3b, 0x3e,
  0x3f, 0xcc, 0xad, 0xbe, 0xbf, 0x5f, 0xa3, 0xbe, 0x3e, 0xf6, 0xb2, 0xbe,
  0x47, 0x9b, 0x6b, 0xbe, 0xbc, 0xa2, 0x39, 0x3d, 0xe3, 0x68, 0x05, 0xbf,
  0x89, 0xcb, 0x22, 0x3d, 0xc2, 0x64, 0xae, 0x3e, 0xea, 0x3f, 0xca, 0xbd,
  0x94, 0xc3, 0x1e, 0xbe, 0x90, 0x9e, 0x89, 0x3e, 0x6c, 0xd6, 0x20, 0xba,
  0x24, 0x45, 0x02, 0x3e, 0x5f, 0x3e, 0x2a, 0x3d, 0x33, 0xf0, 0xa4, 0x3e,
  0x78, 0x43, 0x9a, 0x3e, 0xf0, 0x16, 0x0e, 0x3f, 0x47, 0xb3, 0x40, 0xbe,
  0x92, 0x29, 0x9f, 0x3e, 0x61, 0x73, 0x0a, 0x3e, 0x47, 0xd7, 0x8c, 0x3c,
  0x5f, 0x87, 0x53, 0x3e, 0x1b, 0xdb, 0x32, 0xbd, 0x03, 0xb7, 0x89, 0xbc,
  0x28, 0xe3, 0xc4, 0xbe, 0xc0, 0xd3, 0x28, 0x3e, 0x88, 0x56, 0x9d, 0x3e,
  0xd1, 0x01, 0x40, 0xbd, 0x8f, 0x10, 0x89, 0x3e, 0xa7, 0x79, 0x98, 0x39,
  0x3a, 0x58, 0x45, 0xbe, 0x2a, 0x26, 0x95, 0x3e, 0xa8, 0xc1, 0x90, 0x3d,
  0x97, 0xbe, 0x20, 0xbd, 0x16, 0xcb, 0x26, 0xbe, 0xd9, 0xe4, 0xdb, 0xbd,
  0x6b, 0xe2, 0xfb, 0xbd, 0xb6, 0x73, 0x31, 0x3e, 0xba, 0x9c, 0x08, 0x3f,
  0xdd, 0x27, 0x87, 0x3e, 0x24, 0x6d, 0xae, 0xbe, 0xe5, 0x7e, 0x67, 0x3e,
  0x0d, 0xb5, 0x90, 0x3e, 0xf5, 0x86, 0xe6, 0xbc, 0x8c, 0xe5, 0x3c, 0x3e,
  0xcc, 0xef, 0xe4, 0xbe, 0x04, 0x73, 0xa9, 0xbe, 0x29, 0x71, 0x97, 0xbe,
  0x7b, 0xbe, 0x84, 0xbe, 0x99, 0xa3, 0x93, 0x3e, 0x46, 0xfe, 0xff, 0xff,
  0x10, 0x00, 0x00, 0x00, 0x05, 0x00, 0x00, 0x00, 0x14, 0x00, 0x00, 0x00,
  0x2c, 0x00, 0x00, 0x00, 0x02, 0x00, 0x00, 0x00, 0x14, 0x00, 0x00, 0x00,
  0x21, 0x00, 0x00, 0x00, 0x17, 0x00, 0x00, 0x00, 0x73, 0x65, 0x71, 0x75,
  0x65, 0x6e, 0x74, 0x69, 0x61, 0x6c, 0x2f, 0x64, 0x65, 0x6e, 0x73, 0x65,
  0x2f, 0x4d, 0x61, 0x74, 0x4d, 0x75, 0x6c, 0x00, 0xc8, 0xfd, 0xff, 0xff,
  0xea, 0xfe, 0xff, 0xff, 0x04, 0x00, 0x00, 0x00, 0x20, 0x00, 0x00, 0x00,
  0xb6, 0x0b, 0xbc, 0xbd, 0x54, 0xd5, 0x7c, 0x3d, 0x30, 0x15, 0x84, 0xbe,
  0xe3, 0xed, 0x4d, 0x3e, 0x56, 0x8d, 0xda, 0x3e, 0x96, 0xb2, 0x85, 0xbe,
  0x8f, 0xf3, 0xc5, 0xbd, 0x98, 0x18, 0x30, 0x3e, 0xb2, 0xfe, 0xff, 0xff,
  0x10, 0x00, 0x00, 0x00, 0x04, 0x00, 0x00, 0x00, 0x10, 0x00, 0x00, 0x00,
  0x44, 0x00, 0x00, 0x00, 0x01, 0x00, 0x00, 0x00, 0x08, 0x00, 0x00, 0x00,
  0x31, 0x00, 0x00, 0x00, 0x73, 0x65, 0x71, 0x75, 0x65, 0x6e, 0x74, 0x69,
  0x61, 0x6c, 0x2f, 0x79, 0x5f, 0x70, 0x72, 0x65, 0x64, 0x2f, 0x42, 0x69,
  0x61, 0x73, 0x41, 0x64, 0x64, 0x2f, 0x52, 0x65, 0x61, 0x64, 0x56, 0x61,
  0x72, 0x69, 0x61, 0x62, 0x6c, 0x65, 0x4f, 0x70, 0x2f, 0x72, 0x65, 0x73,
  0x6f, 0x75, 0x72, 0x63, 0x65, 0x00, 0x00, 0x00, 0x4c, 0xfe, 0xff, 0xff,
  0x6e, 0xff, 0xff, 0xff, 0x04, 0x00, 0x00, 0x00, 0x28, 0x00, 0x00, 0x00,
  0x2a, 0x8b, 0x90, 0x3b, 0x00, 0x00, 0x00, 0x00, 0xb9, 0xf6, 0xa5, 0x3c,
  0x88, 0x0f, 0x14, 0x3e, 0x78, 0x97, 0x9b, 0x3e, 0x1e, 0xae, 0xd0, 0xbc,
  0x08, 0x19, 0x8c, 0x3e, 0x94, 0xb0, 0xa4, 0xbb, 0x07, 0x54, 0x6c, 0xbd,
  0x7b, 0x1c, 0xa9, 0x3e, 0x3e, 0xff, 0xff, 0xff, 0x10, 0x00, 0x00, 0x00,
  0x03, 0x00, 0x00, 0x00, 0x10, 0x00, 0x00, 0x00, 0x48, 0x00, 0x00, 0x00,
  0x01, 0x00, 0x00, 0x00, 0x0a, 0x00, 0x00, 0x00, 0x32, 0x00, 0x00, 0x00,
  0x73, 0x65, 0x71, 0x75, 0x65, 0x6e, 0x74, 0x69, 0x61, 0x6c, 0x2f, 0x64,
  0x65, 0x6e, 0x73, 0x65, 0x5f, 0x31, 0x2f, 0x42, 0x69, 0x61, 0x73, 0x41,
  0x64, 0x64, 0x2f, 0x52, 0x65, 0x61, 0x64, 0x56, 0x61, 0x72, 0x69, 0x61,
  0x62, 0x6c, 0x65, 0x4f, 0x70, 0x2f, 0x72, 0x65, 0x73, 0x6f, 0x75, 0x72,
  0x63, 0x65, 0x00, 0x00, 0x04, 0x00, 0x06, 0x00, 0x04, 0x00, 0x00, 0x00,
  0x00, 0x00, 0x06, 0x00, 0x08, 0x00, 0x04, 0x00, 0x06, 0x00, 0x00, 0x00,
  0x04, 0x00, 0x00, 0x00, 0x50, 0x00, 0x00, 0x00, 0xcd, 0x44, 0x57, 0x3e,
  0xfa, 0x75, 0xad, 0x3e, 0xc7, 0xba, 0x97, 0x3e, 0x53, 0xab, 0xc2, 0x3e,
  0x82, 0x52, 0x43, 0xbd, 0xdc, 0x3a, 0xec, 0x3e, 0x1e, 0xdf, 0x04, 0xbd,
  0x00, 0x00, 0x00, 0x00, 0x21, 0x40, 0x64, 0x3e, 0x76, 0xf1, 0x9a, 0x3e,
  0x02, 0xd1, 0x6a, 0x3d, 0x99, 0x1c, 0x40, 0x3d, 0x14, 0x4c, 0xcd, 0xbd,
  0x45, 0xd6, 0x3b, 0xbd, 0x8c, 0x50, 0x92, 0x3a, 0x24, 0xf4, 0xdc, 0x3d,
  0x5b, 0xf0, 0xf1, 0x3e, 0x96, 0xfc, 0x8d, 0xbd, 0xe3, 0x56, 0x75, 0x3e,
  0xaa, 0x0a, 0x19, 0xbd, 0x00, 0x00, 0x0e, 0x00, 0x14, 0x00, 0x04, 0x00,
  0x00, 0x00, 0x08, 0x00, 0x0c, 0x00, 0x10, 0x00, 0x0e, 0x00, 0x00, 0x00,
  0x10, 0x00, 0x00, 0x00, 0x02, 0x00, 0x00, 0x00, 0x10, 0x00, 0x00, 0x00,
  0x44, 0x00, 0x00, 0x00, 0x01, 0x00, 0x00, 0x00, 0x14, 0x00, 0x00, 0x00,
  0x30, 0x00, 0x00, 0x00, 0x73, 0x65, 0x71, 0x75, 0x65, 0x6e, 0x74, 0x69,
  0x61, 0x6c, 0x2f, 0x64, 0x65, 0x6e, 0x73, 0x65, 0x2f, 0x42, 0x69, 0x61,
  0x73, 0x41, 0x64, 0x64, 0x2f, 0x52, 0x65, 0x61, 0x64, 0x56, 0x61, 0x72,
  0x69, 0x61, 0x62, 0x6c, 0x65, 0x4f, 0x70, 0x2f, 0x72, 0x65, 0x73, 0x6f,
  0x75, 0x72, 0x63, 0x65, 0x00, 0x00, 0x00, 0x00, 0xa8, 0xff, 0xff, 0xff,
  0x14, 0x00, 0x18, 0x00, 0x04, 0x00, 0x00, 0x00, 0x08, 0x00, 0x0c, 0x00,
  0x10, 0x00, 0x00, 0x00, 0x00, 0x00, 0x14, 0x00, 0x14, 0x00, 0x00, 0x00,
  0x14, 0x00, 0x00, 0x00, 0x01, 0x00, 0x00, 0x00, 0x18, 0x00, 0x00, 0x00,
  0x2c, 0x00, 0x00, 0x00, 0x1c, 0x00, 0x00, 0x00, 0x02, 0x00, 0x00, 0x00,
  0x01, 0x00, 0x00, 0x00, 0x21, 0x00, 0x00, 0x00, 0x07, 0x00, 0x00, 0x00,
  0x78, 0x5f, 0x69, 0x6e, 0x70, 0x75, 0x74, 0x00, 0x02, 0x00, 0x00, 0x00,
  0xff, 0xff, 0xff, 0xff, 0x21, 0x00, 0x00, 0x00, 0xfc, 0xff, 0xff, 0xff,
  0x04, 0x00, 0x04, 0x00, 0x04, 0x00, 0x00, 0x00
};
unsigned int model_tflite_len = 5588;
